<unk>	0
<s>	0
</s>	0
.	-3.50332
▁के	-3.68181
▁है	-3.8637
▁में	-3.88771
,	-4.00493
▁की	-4.08013
▁से	-4.35281
▁और	-4.45294
▁को	-4.4822
▁का	-4.4865
-	-4.49838
।	-4.53828
▁	-4.53854
▁पर	-4.84719
ों	-4.86599
▁कि	-4.89381
ी	-4.90941
▁ने	-4.94787
▁हैं	-4.9505
▁भी	-5.05664
▁नहीं	-5.14071
▁एक	-5.2135
ा	-5.24327
▁था	-5.3335
▁ही	-5.37048
▁इस	-5.44246
▁हो	-5.45766
▁तो	-5.48568
▁यह	-5.57058
न	-5.5796
▁लिए	-5.60694
▁कर	-5.6075
े	-5.6969
ता	-5.73998
▁वह	-5.77382
ने	-5.81636
क	-5.83058
▁गया	-5.87502
र	-5.9017
कर	-5.92811
▁किया	-5.94327
▁न	-6.00934
▁थी	-6.0392
▁कहा	-6.04897
▁"	-6.08024
ल	-6.0984
म	-6.10509
▁थे	-6.12343
ना	-6.16764
▁करने	-6.19473
ं	-6.2175
▁अपने	-6.23409
स	-6.24522
▁कुछ	-6.24798
▁(	-6.25946
▁जो	-6.26373
▁'	-6.28362
▁रहा	-6.33871
▁साथ	-6.34068
▁आ	-6.34379
▁दिया	-6.34922
)	-6.34938
▁तक	-6.3565
▁जा	-6.37147
▁हुए	-6.39316
▁बाद	-6.39878
?	-6.40235
के	-6.42791
ते	-6.46993
▁अ	-6.49725
▁रहे	-6.50236
त	-6.50768
▁कोई	-6.51685
▁लेकिन	-6.51775
▁वे	-6.55222
▁या	-6.55677
का	-6.56444
▁उसे	-6.56725
ट	-6.59088
▁किसी	-6.61296
▁रही	-6.61454
व	-6.61618
ियों	-6.62131
▁तथा	-6.63567
▁बात	-6.642
▁होता	-6.65804
▁उसके	-6.6645
▁जाता	-6.67371
▁हुआ	-6.6791
▁अपनी	-6.68562
ो	-6.68997
ती	-6.70934
▁भारत	-6.71574
▁मैं	-6.7327
प	-6.73422
▁अब	-6.74263
से	-6.75442
की	-6.7592
▁पहले	-6.76622
ब	-6.76635
▁ये	-6.77699
द	-6.78038
▁जब	-6.78164
▁क्या	-6.78601
▁`	-6.78948
▁उस	-6.79493
▁गई	-6.80218
▁फिर	-6.82036
ित	-6.8213
▁तरह	-6.82605
▁दो	-6.8287
▁होने	-6.83613
में	-6.83842
ज	-6.84663
▁वाले	-6.85629
▁इन	-6.85815
ि	-6.86368
▁सकता	-6.86613
▁समय	-6.89464
▁दी	-6.90321
▁हुई	-6.90506
▁उन्होंने	-6.90782
▁लोगों	-6.90862
ें	-6.92253
ला	-6.93887
्	-6.95123
▁उनके	-6.95927
▁बहुत	-6.9669
ग	-6.96903
▁इसके	-6.97199
▁करते	-6.97826
▁कम	-7.00621
ह	-7.01305
श	-7.01703
य	-7.03147
▁हम	-7.03988
▁उन्हें	-7.05383
▁लोग	-7.05491
▁काम	-7.05774
को	-7.05968
▁जाने	-7.06645
▁गए	-7.06734
▁सरकार	-7.0739
▁देश	-7.07553
या	-7.08084
▁स	-7.08438
िक	-7.08886
▁रूप	-7.09773
ओं	-7.10082
ण	-7.10505
ई	-7.11369
▁उसने	-7.11687
▁होती	-7.11788
अ	-7.11864
!	-7.11995
सी	-7.12858
▁व	-7.134
ु	-7.15324
▁घर	-7.15424
ख	-7.18118
▁उसकी	-7.18311
▁दिन	-7.18966
च	-7.19189
है	-7.19292
▁कारण	-7.1933
▁कई	-7.20079
▁जाती	-7.20654
▁बार	-7.2262
▁चाहिए	-7.23108
'	-7.23794
▁दोनों	-7.23965
री	-7.24588
रा	-7.25003
वा	-7.25176
▁लिया	-7.25685
▁लगा	-7.25727
▁ओर	-7.26473
▁नाम	-7.26518
▁जैसे	-7.27552
--	-7.28993
▁अधिक	-7.29026
सा	-7.29929
ड	-7.30316
जी	-7.30881
▁पास	-7.31217
▁होगा	-7.31813
ू	-7.32717
फ	-7.34845
नी	-7.35016
▁करना	-7.3538
्य	-7.35594
▁मुझे	-7.36134
ए	-7.38271
ले	-7.38766
▁प्रकार	-7.38986
▁सब	-7.39112
वार	-7.39704
्स	-7.40189
स्	-7.4051
▁अपना	-7.41553
ली	-7.41804
▁ले	-7.42056
▁प	-7.43688
▁तब	-7.4425
▁उसका	-7.44901
▁ऐसा	-7.45129
▁कभी	-7.45222
▁उनकी	-7.45322
▁होते	-7.46299
ंग	-7.467
▁ऐसे	-7.46898
▁आप	-7.47458
▁करता	-7.48076
▁वाली	-7.48342
▁द्वारा	-7.48756
▁क	-7.48865
▁कहना	-7.49113
आ	-7.49265
▁दे	-7.49392
▁गयी	-7.49528
ड़	-7.50215
मा	-7.50287
▁एवं	-7.50646
▁लेकर	-7.50729
पर	-7.51036
▁हर	-7.52279
▁सबसे	-7.52564
▁वि	-7.53017
▁भारतीय	-7.53356
▁बीच	-7.53761
▁गये	-7.54082
▁जाते	-7.54093
▁प्रति	-7.54851
▁अगर	-7.55516
▁आदि	-7.55964
▁हाथ	-7.56243
र्	-7.56435
▁सभी	-7.56519
ै	-7.57607
िंग	-7.57637
▁मन	-7.57874
▁इससे	-7.58516
▁प्र	-7.59096
▁पाकिस्तान	-7.59248
▁ब	-7.61294
▁म	-7.61445
▁सकते	-7.61478
▁बताया	-7.61736
▁उन	-7.61783
वि	-7.6231
▁अन्य	-7.62617
▁देने	-7.62755
और	-7.63516
▁तीन	-7.63522
▁इसी	-7.6372
▁ज्यादा	-7.64111
▁आज	-7.64127
▁जी	-7.64358
▁सकती	-7.65375
ः	-7.65377
हो	-7.65469
:	-7.65773
▁क्योंकि	-7.65801
~	-7.66389
"	-7.67365
▁दूसरे	-7.67972
▁ए	-7.69063
▁इसका	-7.69269
ओ	-7.6987
▁साल	-7.70065
▁बड़ी	-7.70324
▁जीवन	-7.71335
▁उनका	-7.71615
ौ	-7.73203
एं	-7.73223
जा	-7.73371
▁बना	-7.73418
▁तुम	-7.75071
▁देखा	-7.75087
▁च	-7.75087
▁सामने	-7.76193
▁मेरे	-7.76415
▁ऐसी	-7.76547
▁यदि	-7.76856
ठ	-7.76979
रे	-7.77007
िया	-7.77023
▁बड़े	-7.77031
▁करके	-7.77192
▁""	-7.78433
▁हूं	-7.7844
▁बाहर	-7.79254
▁रह	-7.79272
भी	-7.79693
▁इसलिए	-7.79833
गी	-7.80519
▁बारे	-7.80561
▁यहां	-7.81385
ीय	-7.8165
▁क्षेत्र	-7.81876
▁वहां	-7.82792
▁आया	-7.82975
▁काफी	-7.83249
▁भर	-7.83261
▁ग	-7.84497
▁अभी	-7.84666
▁सु	-7.85064
▁टीम	-7.85291
▁सी	-7.85356
▁क्यों	-7.86046
ही	-7.86302
भ	-7.86345
▁पता	-7.86607
▁अनुसार	-7.87092
▁पुलिस	-7.87573
न्	-7.87879
▁केवल	-7.87974
ध	-7.88839
▁भाग	-7.89058
▁किए	-7.89485
▁हमारे	-7.8963
▁वर्ष	-7.89945
▁मिल	-7.90266
ये	-7.90455
▁बन	-7.91325
ँ	-7.91368
▁करती	-7.91397
इ	-7.91847
▁रन	-7.92773
▁नि	-7.92919
▁पिछले	-7.93171
▁प्रयोग	-7.93252
नि	-7.93456
▁चार	-7.93726
▁आने	-7.93735
▁मैंने	-7.94447
▁चल	-7.94679
गा	-7.94709
▁कहीं	-7.94712
▁इसे	-7.94896
▁सा	-7.95671
▁पानी	-7.95827
थ	-7.95842
▁आई	-7.96529
▁कार्य	-7.96589
▁हूँ	-7.96947
▁थीं	-7.97448
ियां	-7.97551
़	-7.97703
▁ज	-7.97841
दा	-7.98119
२	-7.98258
ाई	-7.98916
▁इसमें	-7.99275
▁विशेष	-7.99374
था	-7.99488
▁राज्य	-7.99492
▁आगे	-7.99659
▁देशों	-7.99761
▁जिस	-8.00213
कि	-8.00258
ंड	-8.00764
▁ठीक	-8.01214
▁यही	-8.01565
स्त	-8.02101
▁विकास	-8.02547
▁होगी	-8.0276
▁पी	-8.0278
कार	-8.02922
▁त	-8.03172
ष	-8.03439
▁चीन	-8.03469
▁जाए	-8.03643
▁लगे	-8.03867
▁ल	-8.04097
क्	-8.04194
▁स्थिति	-8.04627
▁उसी	-8.04837
▁कंपनी	-8.0497
उ	-8.05072
▁तैयार	-8.05123
▁व्यक्ति	-8.05489
▁लगता	-8.05844
प्र	-8.05992
ड़ा	-8.06015
▁बड़ा	-8.06176
▁मुताबिक	-8.06939
▁पूर्व	-8.07455
▁कह	-8.07818
▁पूरी	-8.07966
▁प्राप्त	-8.08251
▁ख	-8.08303
टा	-8.08419
क्ष	-8.08452
▁शुरू	-8.08505
▁धर्म	-8.08673
▁दूर	-8.089
पी	-8.08906
▁रात	-8.0892
बा	-8.08969
▁मु	-8.08976
बी	-8.09062
▁रोग	-8.09129
▁दिनों	-8.09198
▁चला	-8.09393
▁उत्तर	-8.10099
▁पा	-8.10259
▁राजा	-8.10512
▁ली	-8.10584
▁बनाने	-8.10972
मान	-8.11295
▁कहते	-8.11748
हैं	-8.11785
वे	-8.1197
ति	-8.12133
▁ऊपर	-8.12516
▁ना	-8.12989
▁रहता	-8.13212
▁मांग	-8.13741
▁रहने	-8.14277
स्ट	-8.14401
▁मामले	-8.14429
▁वाला	-8.14451
▁अलग	-8.14484
एक	-8.14766
▁सं	-8.14939
▁बे	-8.15071
साल	-8.15294
▁लगभग	-8.1575
▁आधार	-8.15772
▁राज	-8.15981
▁इसकी	-8.16212
▁जल	-8.16219
▁समझ	-8.16529
▁दुनिया	-8.16704
▁र	-8.16705
▁ह	-8.16895
▁जाना	-8.16981
▁देख	-8.17267
▁कु	-8.17296
▁लगी	-8.17968
▁कोशिश	-8.17988
▁स्थान	-8.18062
`	-8.18363
▁पड़ा	-8.18667
▁हमें	-8.18667
▁समाज	-8.18858
१	-8.19263
▁पार	-8.19283
▁देते	-8.19342
▁जबकि	-8.19429
दी	-8.1952
▁बंद	-8.19655
▁मेरी	-8.19745
▁जाएगा	-8.19874
▁शरीर	-8.20671
करने	-8.20903
नहीं	-8.21136
▁बढ़	-8.21147
▁बस	-8.21315
▁रहते	-8.21379
▁जमीन	-8.21422
वर	-8.21578
▁दौरान	-8.21757
▁श	-8.21876
▁मैच	-8.22017
▁उससे	-8.23249
▁दिल्ली	-8.23341
लि	-8.23638
▁भाषा	-8.24023
▁बिना	-8.24169
▁इतना	-8.24199
रो	-8.24323
▁होकर	-8.24567
▁विचार	-8.24717
▁उ	-8.24981
▁जिन	-8.25029
▁कैसे	-8.2503
▁करीब	-8.25058
▁खेल	-8.25569
▁जहां	-8.25609
▁मिला	-8.2566
▁अमेरिका	-8.26086
▁फ	-8.26283
इस	-8.26619
▁छोड़	-8.26762
▁जारी	-8.26824
▁२	-8.26833
शन	-8.27183
▁दूसरी	-8.27522
पुर	-8.27589
▁वो	-8.28283
टी	-8.28539
▁अच्छा	-8.2905
दार	-8.2916
▁अच्छी	-8.29279
▁मे	-8.29307
▁देता	-8.29628
▁खुद	-8.29783
टे	-8.29921
▁लग	-8.30145
▁जिसमें	-8.30219
राज	-8.30241
३	-8.30357
ॉ	-8.30476
ंद	-8.30484
▁ई	-8.30528
▁सुरक्षा	-8.31069
▁आदमी	-8.31347
▁इस्तेमाल	-8.31562
▁पूरा	-8.31655
▁ला	-8.31716
मे	-8.31746
िन	-8.32132
▁स्तर	-8.32147
▁अनेक	-8.3221
▁शामिल	-8.32449
▁तरफ	-8.32538
ज़	-8.32581
▁रखा	-8.32829
▁अथवा	-8.33147
▁मा	-8.33308
जन	-8.33346
▁सके	-8.33396
▁मार	-8.337
▁परन्तु	-8.33982
घ	-8.34133
सिंह	-8.3422
▁प्रधानमंत्री	-8.34249
▁बा	-8.34325
▁रंग	-8.34591
▁भीतर	-8.34695
▁पीछे	-8.3471
▁करें	-8.34827
▁राम	-8.34836
▁अलावा	-8.34859
▁देर	-8.34885
▁मुख्य	-8.34973
4	-8.35236
▁जगह	-8.35468
6	-8.35527
▁इ	-8.35535
▁होना	-8.35559
▁उप	-8.3593
▁खिलाफ	-8.36393
▁रुप	-8.36395
▁वजह	-8.36401
▁संख्या	-8.36407
मी	-8.36553
यह	-8.36784
▁जानकारी	-8.36917
त्र	-8.37206
▁आता	-8.37234
▁सो	-8.37394
▁वा	-8.3743
▁३	-8.37474
▁पहुंच	-8.37487
▁मां	-8.37639
▁ओ	-8.38345
▁उठा	-8.38346
तो	-8.38468
▁छोटे	-8.38497
यों	-8.38548
▁जिससे	-8.38774
▁द	-8.38871
ाय	-8.39086
1	-8.39145
▁मात्रा	-8.39296
▁लेने	-8.39435
ंट	-8.39456
▁मदद	-8.39573
सं	-8.3983
▁बी	-8.40276
चार	-8.40338
दे	-8.4064
▁आपको	-8.40835
फ़	-8.41055
▁कानून	-8.41181
▁खा	-8.41387
ंस	-8.414
▁१	-8.41674
▁सिंह	-8.41675
▁रहती	-8.41736
▁प्रमुख	-8.41912
▁शब्द	-8.42017
▁भ	-8.42056
▁लोक	-8.42099
पा	-8.42103
▁दिए	-8.42192
▁ध्यान	-8.42233
▁यहाँ	-8.42403
▁विभिन्न	-8.42577
▁सिर	-8.42577
▁दृष्टि	-8.43038
ल्	-8.43129
▁मि	-8.43344
▁परिवार	-8.43399
चा	-8.43619
▁सिर्फ	-8.43789
▁हालांकि	-8.44159
▁देना	-8.44169
0	-8.44173
झ	-8.44375
▁ड	-8.44909
▁व्यवस्था	-8.45157
बे	-8.45184
▁स्पष्ट	-8.45292
ण्ड	-8.45351
▁दर	-8.45474
▁राष्ट्रपति	-8.45518
7	-8.45598
▁सि	-8.4586
▁मगर	-8.45901
तक	-8.46084
▁कुल	-8.4634
▁आर्थिक	-8.46621
शा	-8.46838
▁मेरा	-8.47061
वी	-8.47215
▁आरोप	-8.47235
▁चुका	-8.47268
▁संस्कृति	-8.47305
▁आम	-8.4738
▁वहाँ	-8.47457
▁बच्चे	-8.47701
न्द	-8.47917
पन	-8.47962
▁अर्थ	-8.47968
▁ऐ	-8.48207
▁तेल	-8.48332
▁इतनी	-8.48366
▁माना	-8.48478
्यू	-8.48489
न्त	-8.48592
▁नीचे	-8.48669
▁सेना	-8.48723
▁प्रदेश	-8.49141
ृ	-8.49222
बार	-8.49327
▁पद	-8.4957
▁श्री	-8.49659
▁ट	-8.49741
▁सुन	-8.49804
3	-8.5024
ाइ	-8.50345
हा	-8.50349
▁कल	-8.50523
डी	-8.50866
▁निकल	-8.5112
▁संबंध	-8.51473
▁भाव	-8.5151
▁पड़	-8.51528
▁गिर	-8.51548
तर	-8.51684
▁शायद	-8.51842
▁जवाब	-8.51842
▁लिये	-8.51879
▁विश्व	-8.5191
गत	-8.52191
▁अमेरिकी	-8.52239
▁अधिकारियों	-8.52296
▁चाहता	-8.52334
४	-8.52346
▁आए	-8.52562
▁झ	-8.52814
▁कौन	-8.52849
▁कांग्रेस	-8.53015
▁पांच	-8.53021
ाव	-8.53087
ाया	-8.53126
▁बल्कि	-8.53305
▁समस्या	-8.5332
8	-8.53642
▁रिपोर्ट	-8.53678
▁अधिकारी	-8.53815
▁विश्वास	-8.53871
खा	-8.54169
▁प्रभाव	-8.54219
▁पाया	-8.54235
▁जान	-8.54296
▁रख	-8.5437
▁गांव	-8.54461
त्	-8.54548
▁सरकारी	-8.5465
▁उसमें	-8.54665
▁चुके	-8.54832
▁वहीं	-8.55046
▁बदल	-8.55112
▁देती	-8.55144
मो	-8.55284
ष्ट	-8.55485
ंच	-8.55654
▁स्	-8.55809
▁किस	-8.55889
▁रो	-8.56059
▁आये	-8.56408
तरह	-8.56487
र्ज	-8.56546
▁जीत	-8.56626
▁विषय	-8.56652
5	-8.5714
म्	-8.57188
▁प्रदर्शन	-8.57421
जे	-8.57501
▁पंजाब	-8.57506
▁पहली	-8.57574
▁पैदा	-8.57654
▁देखने	-8.57661
▁रे	-8.57727
िका	-8.57797
▁चाहते	-8.57918
▁अतः	-8.57941
सु	-8.57943
▁चुनाव	-8.58105
क्स	-8.58107
▁उनमें	-8.58109
▁शहर	-8.583
▁मंत्री	-8.58313
ेंगे	-8.58328
ान	-8.58449
हि	-8.58513
ियाँ	-8.58536
▁आती	-8.5858
▁भाई	-8.58859
▁५	-8.58867
र्स	-8.58875
▁वर्ग	-8.59013
▁पड़ता	-8.59065
▁बोल	-8.59151
▁जांच	-8.59166
वह	-8.59269
▁अध्ययन	-8.59445
▁मै	-8.59457
▁उतर	-8.59509
▁छ	-8.5952
▁वक्त	-8.59601
ेट	-8.59739
▁नई	-8.60084
▁एस	-8.60555
मन	-8.60558
▁समान	-8.60598
,"	-8.60854
▁जिसके	-8.60859
▁बातें	-8.60868
▁बैठ	-8.61009
▁परमाणु	-8.61062
▁उत्पन्न	-8.6109
मि	-8.61241
▁देखते	-8.61299
▁शक्ति	-8.61348
रि	-8.6135
▁मनुष्य	-8.61479
▁कमी	-8.61488
▁मूल	-8.61579
▁बल	-8.61719
ाने	-8.61814
▁जन	-8.62055
▁सवाल	-8.62181
लाख	-8.62208
▁अनुभव	-8.62246
▁निर्माण	-8.6236
▁याद	-8.62611
▁बच्चों	-8.62709
▁स्वयं	-8.62965
▁वापस	-8.62967
▁तौर	-8.63136
▁ध	-8.63186
▁नजर	-8.63267
▁पूछा	-8.63268
▁बातचीत	-8.63371
▁किन्तु	-8.63428
गर	-8.6344
काल	-8.63533
▁लाख	-8.64273
▁अन	-8.64421
▁मान	-8.64477
रु	-8.64619
▁योजना	-8.64822
त्त	-8.64915
द्ध	-8.64931
▁गो	-8.65177
▁नए	-8.65179
2	-8.65243
▁पार्टी	-8.65351
▁सात	-8.65377
▁जिसे	-8.65414
▁रखने	-8.65499
▁सम्बन्ध	-8.65587
▁डाल	-8.65757
लो	-8.65977
▁मिली	-8.65989
हर	-8.66151
▁पूरे	-8.66278
▁पक्ष	-8.66284
▁लड़की	-8.66318
▁पत्र	-8.66335
▁महत्वपूर्ण	-8.66349
▁प्रतिशत	-8.66428
मु	-8.66437
▁उपयोग	-8.6644
▁10	-8.66473
ार	-8.6652
▁४	-8.66616
▁कार	-8.66655
▁जमा	-8.66656
?"	-8.66712
६	-8.66945
9	-8.67019
▁वालों	-8.67439
▁गांधी	-8.6745
रों	-8.67599
फीसदी	-8.67955
त्व	-8.68024
▁कै	-8.68295
▁दें	-8.68479
यें	-8.68543
▁रस	-8.68718
श्	-8.68773
वास	-8.6891
बल	-8.69307
▁फल	-8.69385
▁विरोध	-8.6939
▁जनता	-8.69427
▁पड़ी	-8.69525
▁नेता	-8.69656
ंक	-8.69842
▁लगाया	-8.70064
जो	-8.70282
साथ	-8.70516
िए	-8.7054
▁हमारी	-8.70559
▁महा	-8.70608
ीन	-8.70631
▁बाल	-8.70736
▁देखकर	-8.71003
▁जरूरत	-8.71054
्या	-8.71376
द्र	-8.71455
▁जन्म	-8.71569
छ	-8.71588
दिन	-8.71772
सि	-8.7186
▁इनमें	-8.72121
भा	-8.72163
▁करेंगे	-8.72316
▁खबर	-8.72346
▁कीमत	-8.72373
▁हमले	-8.72751
▁स्वीकार	-8.72899
▁पिता	-8.72918
▁चुकी	-8.73246
प्रतिशत	-8.73483
▁डर	-8.73663
▁चले	-8.73665
बर	-8.73683
▁अगले	-8.73717
▁हाल	-8.7388
▁मानव	-8.73954
▁कला	-8.74078
▁बाजार	-8.74701
ड़े	-8.748
▁भारी	-8.74899
▁होंगे	-8.75054
▁आवाज	-8.75058
▁बोला	-8.75115
▁सामाजिक	-8.75144
▁पेश	-8.75288
▁मध्य	-8.75324
▁''	-8.75418
▁लाल	-8.75478
थे	-8.75484
▁धन	-8.75853
▁ताकि	-8.75969
▁आते	-8.75977
▁घटना	-8.76028
म्ब	-8.76066
▁सीमा	-8.76143
▁मत	-8.76236
▁पत्नी	-8.76579
▁5	-8.76903
र्म	-8.77113
▁राजनीतिक	-8.77173
▁प्रश्न	-8.77491
र्क	-8.77531
देव	-8.77586
गे	-8.7776
▁20	-8.77955
▁विवाह	-8.77976
▁मिलने	-8.78057
शि	-8.78059
▁अमरीका	-8.78278
▁स्थित	-8.78279
▁बनाए	-8.78506
पूर्ण	-8.78572
यी	-8.78628
ंज	-8.78658
▁जैसी	-8.78753
एँ	-8.78823
धा	-8.78916
वाले	-8.79047
राम	-8.79092
्व	-8.79461
ब्	-8.79478
▁रि	-8.79511
कों	-8.79524
▁पड़े	-8.79734
▁तभी	-8.79795
ढ	-8.7997
▁ज्ञान	-8.80048
▁उम्मीद	-8.80125
▁सही	-8.80133
धार	-8.80263
▁परिवर्तन	-8.80375
५	-8.80629
्र	-8.80638
▁सामान्य	-8.80894
▁युद्ध	-8.80895
▁जोर	-8.81024
इन	-8.8104
▁उनसे	-8.81058
▁किये	-8.81091
▁सौ	-8.81094
▁१९	-8.81122
▁विकेट	-8.81136
▁सुबह	-8.81217
▁साहब	-8.81297
भर	-8.81318
वाद	-8.81425
▁जापान	-8.81443
ंप	-8.81666
▁विभाग	-8.81794
गया	-8.81821
▁वही	-8.81824
रूप	-8.82136
▁सोच	-8.82291
▁चाहे	-8.82504
▁दक्षिण	-8.82523
सर	-8.82543
िल	-8.82613
▁हों	-8.82616
▁जैसा	-8.82627
▁दस	-8.82646
▁रोक	-8.82696
वान	-8.82793
▁भूमि	-8.82793
▁प्रक्रिया	-8.82794
▁पुत्र	-8.82985
▁मो	-8.83087
ां	-8.83396
▁जाये	-8.83471
मैं	-8.83599
▁इतिहास	-8.83687
▁लेते	-8.83771
▁निकाल	-8.83775
▁दल	-8.83883
▁दु	-8.83957
▁जाति	-8.83981
▁मिले	-8.84018
तः	-8.84157
▁प्रयास	-8.84199
▁बने	-8.8426
किया	-8.84314
▁बनाया	-8.84427
▁अनु	-8.84435
▁मर	-8.8454
▁महीने	-8.84644
▁खोज	-8.84748
फा	-8.84847
▁पु	-8.85035
▁खड़ा	-8.85196
▁क्षमता	-8.85241
▁पूर्ण	-8.85251
▁संगीत	-8.8528
▁बावजूद	-8.85636
▁2	-8.85757
एस	-8.858
▁उत्पादन	-8.85832
▁सन्	-8.85991
▁सह	-8.85994
▁काल	-8.86162
▁6	-8.86168
▁लिखा	-8.86258
▁डी	-8.86335
ध्य	-8.86465
▁दा	-8.86503
▁खास	-8.86525
▁दूसरा	-8.86657
चर	-8.86661
टर	-8.86718
▁माँ	-8.86745
▁मह	-8.86815
ड़ी	-8.8686
▁क्रिया	-8.86903
ेगा	-8.86956
▁तेज	-8.87044
▁दिखाई	-8.87275
रू	-8.8731
▁आवश्यकता	-8.87474
▁बैंक	-8.87546
ग्	-8.87551
▁समझा	-8.877
▁देकर	-8.87722
),	-8.87863
▁रक्त	-8.87877
▁आकर	-8.87883
▁सारे	-8.87893
▁पहुंचा	-8.88016
▁अमरीकी	-8.88212
▁लाभ	-8.88251
वें	-8.88296
...	-8.88549
▁कंपनियों	-8.88735
▁यानी	-8.88903
▁छोटी	-8.88962
ष्	-8.89106
▁फैसला	-8.89262
▁बेहतर	-8.89262
▁जाएगी	-8.8936
कभी	-8.89389
▁वैज्ञानिकों	-8.89468
▁य	-8.8953
▁स्वर	-8.89547
▁तय	-8.89759
▁इनके	-8.89989
▁धीरे	-8.90154
▁कार्रवाई	-8.90323
▁हिस्सा	-8.90325
रण	-8.90365
तहत	-8.90496
▁लो	-8.90503
▁तू	-8.90777
चे	-8.9081
▁महिला	-8.90815
चि	-8.9082
▁सोम	-8.90873
▁चली	-8.90928
▁जाकर	-8.91004
▁अधिकार	-8.91189
▁चिकित्सा	-8.91261
पो	-8.91271
▁बढ़ा	-8.91429
▁सहायता	-8.91477
▁आयी	-8.91496
▁सत्ता	-8.91631
▁कमरे	-8.91751
▁घ	-8.92098
पति	-8.9215
▁आयुर्वेद	-8.92175
व्य	-8.92276
▁बता	-8.92287
यू	-8.92376
▁खर्च	-8.92499
▁मौत	-8.9255
▁राष्ट्रीय	-8.9262
▁वृद्धि	-8.92628
▁बह	-8.92634
▁दिल	-8.92769
देश	-8.92777
डे	-8.92829
▁लगातार	-8.9303
▁शादी	-8.93045
▁बोली	-8.93138
वन	-8.93218
शील	-8.93276
▁अध्यक्ष	-8.93575
शी	-8.93689
हार	-8.93752
चल	-8.93829
गो	-8.93935
ष्ठ	-8.9411
▁खड़े	-8.94166
▁दर्ज	-8.94181
▁वैसे	-8.94202
▁अतिरिक्त	-8.94215
▁प्रभावित	-8.9429
▁हवा	-8.94373
▁हार	-8.94493
▁बच	-8.94535
▁आवश्यक	-8.9455
▁दिखा	-8.94615
▁शिक्षा	-8.94775
▁साफ	-8.94859
सरकार	-8.94886
▁दवा	-8.9509
करना	-8.95127
▁अदालत	-8.95242
-"	-8.95267
▁असर	-8.95652
ाइट	-8.95792
▁टी	-8.9583
▁मौजूद	-8.95833
▁इच्छा	-8.95875
▁आठ	-8.95956
डि	-8.95991
▁शाम	-8.96035
▁कं	-8.96125
▁रुपये	-8.96126
▁जिसका	-8.96176
▁सारी	-8.96227
▁खाने	-8.96291
▁गा	-8.96468
▁लौट	-8.96492
त्य	-8.96564
ाँ	-8.96575
▁समिति	-8.96606
▁नदी	-8.96921
▁कदम	-8.96927
▁प्रस्ताव	-8.96996
▁फसल	-8.97278
▁व्यवहार	-8.97295
▁एन	-8.97297
▁उतार	-8.97531
▁जल्दी	-8.97566
▁मुंह	-8.97599
▁प्रथम	-8.97618
▁तेजी	-8.97765
दर	-8.97794
मेंट	-8.97795
▁लेना	-8.97942
▁हमने	-8.98072
▁अंतरराष्ट्रीय	-8.98083
समय	-8.98105
▁कार्यक्रम	-8.9811
▁मृत्यु	-8.98145
ेज	-8.98336
▁पेड़	-8.98398
▁मंत्रालय	-8.98417
▁अंग	-8.98625
ग्र	-8.98683
▁प्रत्येक	-8.98753
▁संघर्ष	-8.98818
▁9	-8.9898
▁मिलता	-8.99034
ंगी	-8.99045
▁चा	-8.99047
▁भा	-8.99154
▁उपलब्ध	-8.99188
▁नही	-8.99227
▁वैज्ञानिक	-8.99287
▁आंदोलन	-8.9929
▁कप्तान	-8.99296
▁ऊर्जा	-8.99335
अपने	-8.99442
▁६	-8.99535
धि	-8.99685
▁जाय	-8.99794
▁इतने	-8.99828
ची	-8.99844
▁खत्म	-8.99857
थी	-8.99897
ूर	-8.999
द्	-8.99947
▁डे	-8.99951
आई	-8.99972
हे	-8.99998
लाल	-9.00149
▁सर	-9.00281
▁जु	-9.00473
ढ़	-9.00487
▁पाकिस्तानी	-9.00492
▁सूचना	-9.0051
▁बैठे	-9.00541
▁विदेशी	-9.00547
▁माल	-9.00622
▁फ़	-9.00628
▁अभि	-9.00655
▁पति	-9.01044
▁ब्रिटेन	-9.01069
▁लीबिया	-9.01529
मिल	-9.01551
रह	-9.01636
▁विकसित	-9.01703
▁गु	-9.01902
▁पि	-9.01971
▁मुंबई	-9.02201
▁तुम्हें	-9.02283
▁यू	-9.02396
▁शोध	-9.02538
ात्मक	-9.0259
▁विदेश	-9.02593
▁मुख	-9.02691
▁घोषणा	-9.02804
▁शुरुआत	-9.02805
▁उम्र	-9.02806
▁देव	-9.0287
▁बैठक	-9.02912
दान	-9.03032
▁रा	-9.03062
▁खाना	-9.03088
▁खरीद	-9.03163
कु	-9.03405
▁चिंता	-9.03412
▁समर्थन	-9.03506
▁पैसे	-9.03511
▁चर्चा	-9.03543
▁बचा	-9.03584
यो	-9.03602
▁खोल	-9.03675
▁मारे	-9.03852
▁ढ	-9.03946
▁बराबर	-9.04019
▁भेज	-9.04036
▁अंदर	-9.04077
▁समुद्र	-9.04146
▁क्षेत्रों	-9.04149
▁पौधे	-9.0415
एम	-9.04244
▁रक्षा	-9.04262
▁नीति	-9.04312
▁नगर	-9.0437
▁यात्रा	-9.04635
▁गुण	-9.04855
▁सम	-9.04944
▁सदस्य	-9.05041
▁क्रिकेट	-9.05046
▁चलते	-9.05102
▁पहचान	-9.05335
▁थोड़ी	-9.05375
▁गाय	-9.05426
आर	-9.05482
▁चि	-9.05484
▁मी	-9.05711
भूत	-9.05712
कल	-9.05725
दो	-9.05733
▁विधि	-9.05792
वाली	-9.0582
▁आखिर	-9.05844
▁दिशा	-9.0588
▁एम	-9.05946
▁केंद्र	-9.06044
▁आदेश	-9.06071
▁टन	-9.06082
▁बेच	-9.06362
▁कितनी	-9.06507
▁दूध	-9.06512
▁हि	-9.06538
७	-9.06654
▁आपके	-9.06676
▁प्रेम	-9.06721
▁ताल	-9.06771
▁15	-9.06823
स्व	-9.06871
▁फिल्म	-9.0698
▁भ्रष्टाचार	-9.07125
▁हत्या	-9.07126
▁प्राचीन	-9.07275
▁करनी	-9.07346
▁लेता	-9.07559
▁लिख	-9.07626
▁दबाव	-9.07839
▁अल	-9.0789
करोड़	-9.07937
वर्ष	-9.07966
▁स्कूल	-9.07976
▁बैठा	-9.08065
▁फा	-9.08087
यर	-9.08123
▁सुख	-9.08128
र्ट	-9.08266
▁सुधार	-9.08447
▁नुकसान	-9.08454
▁डा	-9.0846
▁प्रायः	-9.0851
▁सेवा	-9.08579
धीरे	-9.08622
▁घट	-9.08627
▁जि	-9.0872
र्ड	-9.08736
करते	-9.09004
▁लगाने	-9.09022
▁गर्म	-9.09093
▁तुम्हारे	-9.09145
अलग	-9.0936
▁करोड़	-9.0938
▁परि	-9.0941
▁गति	-9.09427
▁बीज	-9.09495
आप	-9.09591
▁जरूरी	-9.09609
▁नया	-9.09633
न्न	-9.09708
्ट	-9.0972
▁हमारा	-9.09741
▁भूमिका	-9.09869
ूं	-9.09934
कुमार	-9.09981
यां	-9.10148
▁पहुँच	-9.10254
▁भिन्न	-9.10258
▁जहाँ	-9.10349
▁रवि	-9.10463
▁दौड़	-9.10498
▁पहला	-9.10517
▁लगती	-9.10606
▁निर्	-9.10615
बू	-9.10758
▁भू	-9.10809
▁दाम	-9.11001
▁पृथ्वी	-9.11052
ालय	-9.1118
▁संभव	-9.11224
ेस	-9.11286
▁चलता	-9.1136
ेन	-9.11506
▁सुना	-9.11593
▁पुरुष	-9.11678
▁मूल्य	-9.11742
▁अवस्था	-9.11782
्त	-9.11782
हम	-9.11831
क्र	-9.11981
ाना	-9.12148
▁टूट	-9.12159
▁बयान	-9.12337
▁कितने	-9.12338
▁निवेश	-9.12635
कारी	-9.12735
क्या	-9.12943
▁युग	-9.12982
▁टेस्ट	-9.12992
▁बजट	-9.1304
▁बनी	-9.13065
▁अच्छे	-9.13092
▁सू	-9.13122
▁आत्म	-9.13179
▁चीनी	-9.13213
ंत	-9.13369
▁आयु	-9.13432
९	-9.13533
▁महत्व	-9.13649
▁संकेत	-9.13757
▁जंगल	-9.13774
कुछ	-9.13871
▁हां	-9.13957
▁लें	-9.14039
▁गेंद	-9.14055
▁तोड़	-9.14109
▁बो	-9.14204
▁पाए	-9.14298
▁स्ट	-9.14299
▁इंग्लैंड	-9.14318
▁हजार	-9.14333
▁उचित	-9.14338
▁दिख	-9.14387
▁ग्राम	-9.14466
▁आग	-9.14733
टो	-9.14869
▁गिरफ्तार	-9.14998
▁उच्च	-9.15004
▁कृषि	-9.15086
▁प्यार	-9.15123
▁कहता	-9.15255
▁सर्व	-9.15488
▁3	-9.15609
▁मात्र	-9.15645
▁8	-9.15735
▁पैसा	-9.15757
▁बिहार	-9.15827
▁निश्चित	-9.15835
बु	-9.15941
▁बढ़ाने	-9.16375
▁मंगल	-9.16407
▁नौ	-9.16429
जल	-9.1651
▁मैदान	-9.16512
▁लि	-9.16531
▁सारा	-9.16555
▁बाकी	-9.16646
▁अव	-9.16797
।'	-9.16833
ियर	-9.16959
▁शुरु	-9.17076
▁स्त्री	-9.17077
▁चाहिये	-9.17159
▁समूह	-9.17172
▁खान	-9.17189
▁कहने	-9.17263
▁पकड़	-9.1727
च्छ	-9.17497
▁मालूम	-9.17855
▁गाँव	-9.17908
▁वन	-9.17913
ीकरण	-9.18132
▁अंक	-9.18133
िस्ट	-9.18282
▁पै	-9.18393
▁भूल	-9.18462
▁महसूस	-9.18471
▁तुलना	-9.18472
▁टैक्स	-9.18476
▁स्थापित	-9.18598
▁केन्द्र	-9.18645
▁पाठ	-9.18653
▁मानते	-9.18744
ट्	-9.18769
▁पाने	-9.18848
▁चढ़	-9.18956
नों	-9.18969
▁7	-9.19028
बो	-9.19032
ोर	-9.192
▁लड़ाई	-9.19207
▁ओवर	-9.19244
रख	-9.19246
▁१०	-9.19402
▁गृह	-9.19431
ठा	-9.19438
पु	-9.19581
▁करेगा	-9.19737
▁सच	-9.19757
▁बि	-9.19768
डा	-9.19796
▁परिणाम	-9.20006
▁स्वास्थ्य	-9.20055
▁पूछ	-9.2008
८	-9.20138
▁कश्मीर	-9.20164
▁चित्र	-9.20312
▁जरा	-9.20434
िम	-9.20531
▁करे	-9.20601
▁खो	-9.20666
ाल	-9.20725
▁रहना	-9.20758
▁वर्तमान	-9.20767
▁समाप्त	-9.20767
▁जुड़े	-9.20814
▁पढ़	-9.2087
▁आंखों	-9.21063
▁बनाकर	-9.21065
सो	-9.21243
▁मुख्यमंत्री	-9.21352
▁मतलब	-9.21355
▁मुश्किल	-9.21429
▁महिलाओं	-9.21451
ुक	-9.21495
▁नामक	-9.21579
▁किसान	-9.21598
ेगी	-9.21717
▁1	-9.21936
भाव	-9.2199
▁चारों	-9.22002
▁बीबीसी	-9.22068
▁बन्द	-9.2211
▁मिट्टी	-9.2221
▁पुस्तक	-9.22226
▁प्रकाश	-9.2232
▁जिनमें	-9.22356
▁जानते	-9.22389
ूँ	-9.22482
र्द	-9.22575
▁बिजली	-9.22795
▁हमेशा	-9.22804
▁उठ	-9.22866
▁दावा	-9.22906
▁लक्ष्य	-9.2292
▁वैद्य	-9.2295
▁लक्षण	-9.23014
▁विष	-9.23068
▁गैस	-9.23183
▁सफल	-9.2322
रुपये	-9.23283
▁नष्ट	-9.23293
▁चीज	-9.23425
▁व्यापार	-9.23459
कर्म	-9.23724
▁4	-9.2375
▁लड़के	-9.23787
तु	-9.23878
मर	-9.24028
ड़ों	-9.24162
पे	-9.24279
▁शिकायत	-9.2429
▁थोड़ा	-9.24291
,000	-9.24294
▁कितना	-9.24319
▁प्रकृति	-9.2448
ास	-9.24596
क्रम	-9.24631
▁मित्र	-9.24706
▁थ	-9.24726
▁नौकरी	-9.24786
ाम	-9.24857
▁ठ	-9.24907
▁गरीब	-9.25045
▁कारोबार	-9.25047
▁अनुमान	-9.25088
कड़	-9.25112
▁पाँच	-9.25129
सद	-9.25242
िये	-9.25263
बि	-9.25589
म्प	-9.25629
▁हाथों	-9.25638
▁हंस	-9.2575
००	-9.25794
▁शराब	-9.258
▁किंतु	-9.25802
▁कर्म	-9.25852
▁भविष्य	-9.25886
▁कहानी	-9.25926
▁गंभीर	-9.25937
हन	-9.25955
▁रोगी	-9.25976
▁मू	-9.26002
▁शुक्र	-9.26085
▁गुरु	-9.26094
ुल	-9.26364
▁संभावना	-9.26491
▁छोड़कर	-9.26522
▁विद्रोह	-9.2657
▁वाद्यों	-9.26601
▁भावना	-9.26621
▁विवाद	-9.26653
00	-9.26662
पाल	-9.26671
▁शब्दों	-9.26674
▁आधुनिक	-9.26724
▁न्याय	-9.26727
कम	-9.26849
▁सका	-9.2691
▁हल	-9.26971
▁कब	-9.27018
▁'`	-9.2712
▁नेताओं	-9.27123
वादी	-9.27175
राव	-9.27227
▁पल	-9.27249
▁धार्मिक	-9.27332
▁राजधानी	-9.27332
▁सड़क	-9.27347
▁समाचार	-9.27347
▁विपक्ष	-9.27353
▁छह	-9.27383
▁भूख	-9.27585
क़	-9.2764
ेशन	-9.27651
ैन	-9.27674
▁वाद्य	-9.27701
▁उधर	-9.27726
▁डॉ	-9.27809
▁औरत	-9.27869
▁इनकी	-9.27896
▁जानता	-9.2803
पि	-9.2803
▁50	-9.28092
▁श्रीलंका	-9.28108
▁खींच	-9.28108
▁हथियार	-9.28111
▁उदाहरण	-9.28171
▁ढंग	-9.2818
▁इन्हें	-9.28189
▁पड़ेगा	-9.28197
▁निर्णय	-9.28197
▁भोजन	-9.28226
सार	-9.28378
▁योग	-9.28406
ड्	-9.2851
प्	-9.28811
▁मामलों	-9.28889
▁चेहरे	-9.28893
▁दिये	-9.2893
▁छूट	-9.29066
▁विमान	-9.29066
०	-9.29081
वाह	-9.29262
ल्ला	-9.29353
▁जड़	-9.29446
▁रहेगा	-9.29539
▁चाहती	-9.29742
▁उद्योग	-9.29783
▁अपराध	-9.298
▁मं	-9.29827
▁फंड	-9.29898
दिया	-9.29995
▁मिलती	-9.30177
स्थ	-9.30321
▁बोले	-9.30344
▁बढ़ोतरी	-9.3047
▁लागू	-9.3047
बै	-9.30491
स्ट्र	-9.30502
▁माता	-9.30531
नो	-9.30581
▁कट	-9.3059
▁पैर	-9.30615
▁संगठन	-9.3073
▁संस्था	-9.30734
▁उड़	-9.30787
▁वर्ण	-9.30817
▁दुख	-9.30922
क्षेत्र	-9.30996
▁इनका	-9.31056
▁क्ल	-9.31134
पात	-9.31156
▁गलत	-9.31246
▁हा	-9.31263
एफ	-9.31271
▁डॉक्टर	-9.31277
▁मिस्र	-9.31292
▁नये	-9.31487
▁बाबा	-9.31587
▁पौधों	-9.31609
कृत	-9.31664
▁कोर्ट	-9.31668
▁क्र	-9.3186
▁अंत	-9.31944
▁वी	-9.31998
वीं	-9.32034
हीन	-9.32044
▁कठिन	-9.32143
▁अप	-9.32181
▁खाली	-9.32231
▁अन्त	-9.32349
▁जेल	-9.32441
▁कहां	-9.32595
ेंट	-9.32603
बैंक	-9.32642
ार्थ	-9.32719
▁ज़्यादा	-9.32868
▁छोटा	-9.3289
▁साबित	-9.32891
▁इधर	-9.32907
▁प्रकट	-9.32927
▁स्थानीय	-9.3302
▁बनने	-9.33036
▁रुक	-9.3304
▁सुरक्षित	-9.33084
▁आपने	-9.33186
षण	-9.33217
▁रेखा	-9.33243
▁मानना	-9.33317
नाथ	-9.33402
▁काट	-9.33414
▁सत्य	-9.33416
▁करो	-9.33429
▁गोल	-9.33498
ून	-9.33531
उस	-9.33645
▁वीर	-9.33802
▁नियंत्रण	-9.33821
▁तीनों	-9.33835
ियन	-9.33938
▁उसको	-9.33987
लगा	-9.33994
क्त	-9.33996
▁हमला	-9.34172
▁रोकने	-9.34212
▁मल	-9.3425
▁आर	-9.34372
प्रति	-9.34415
▁संस्थान	-9.34453
▁दोष	-9.34498
▁विधायक	-9.34536
▁डि	-9.34552
▁रकम	-9.34572
▁सोचा	-9.34671
बुल	-9.34737
लिया	-9.34784
▁पाता	-9.34836
▁चे	-9.34859
▁रखते	-9.34884
▁नियम	-9.34927
बाद	-9.34953
▁फैल	-9.35198
युक्त	-9.35344
▁खूब	-9.35369
▁संकट	-9.35391
▁मकान	-9.35418
▁शिकार	-9.35524
पत्र	-9.35529
▁एजेंसी	-9.35684
ियो	-9.35701
्म	-9.35767
▁11	-9.35896
▁राय	-9.35898
दर्श	-9.35987
कहा	-9.36159
▁मिलाकर	-9.36183
▁तमाम	-9.3621
▁सीधे	-9.36234
▁खड़ी	-9.36262
▁अचानक	-9.36297
▁चलने	-9.3631
▁उत्	-9.3636
▁प्रस्तुत	-9.3637
▁प्रधान	-9.36408
रिया	-9.36422
▁फोन	-9.36565
▁एकदम	-9.36568
▁साहित्य	-9.36625
▁अति	-9.36686
▁12	-9.36779
▁तार	-9.36826
पद	-9.36894
▁30	-9.36965
▁मजबूत	-9.37057
▁पुराने	-9.37058
ुर	-9.37101
हट	-9.37148
▁विशाल	-9.37192
▁फूल	-9.37227
▁शत्रु	-9.37229
▁अभाव	-9.37233
▁अम्ल	-9.37246
लैंड	-9.37346
घर	-9.37432
▁बर	-9.37499
बड़े	-9.37617
▁कृष्ण	-9.37638
)-	-9.37708
▁शा	-9.37747
▁विरोधी	-9.37786
▁प्रा	-9.3781
▁आपकी	-9.37857
▁सूर्य	-9.37914
ोंके	-9.37973
जब	-9.37979
▁आकार	-9.37993
▁अंतरिक्ष	-9.3801
▁भय	-9.38127
ज्ञ	-9.38135
▁बढ़ती	-9.38489
▁नेतृत्व	-9.38773
▁पर्याप्त	-9.38774
▁नंबर	-9.38775
▁शेयर	-9.38797
पै	-9.38848
▁देंगे	-9.38864
ाह	-9.38902
▁खुश	-9.39087
▁200	-9.3917
तन	-9.3917
होता	-9.39216
टन	-9.39292
▁सजा	-9.39365
▁बु	-9.39406
योग	-9.39486
▁वै	-9.39505
▁हिसाब	-9.39649
▁आसपास	-9.3965
▁अवसर	-9.39664
▁बिल्कुल	-9.39715
▁आस	-9.39765
▁शासन	-9.39981
चित	-9.40207
धर्म	-9.40269
▁सभा	-9.4045
▁रु	-9.40508
▁ख़िलाफ़	-9.4052
▁सार्वजनिक	-9.4052
▁जरिए	-9.40521
▁कमजोर	-9.40555
▁तर्क	-9.40583
▁अवश्य	-9.40618
▁भगवान	-9.40631
▁तकनीक	-9.40664
▁पदार्थ	-9.40718
▁पेट	-9.40803
ल्ड	-9.40938
▁हासिल	-9.41168
▁एल	-9.41176
▁खेती	-9.41229
लु	-9.41256
नु	-9.4128
▁दीवार	-9.41291
।"	-9.41324
▁पे	-9.41372
▁अपेक्षा	-9.41396
▁मानसिक	-9.41428
▁फेंक	-9.41449
▁आपका	-9.41516
▁अवधि	-9.41607
▁जायेगा	-9.41634
▁चू	-9.41673
▁वस्तु	-9.41769
जाता	-9.41771
▁राष्ट्र	-9.41839
र्च	-9.41887
▁विज्ञान	-9.41928
▁बातों	-9.41971
श्र	-9.41979
▁बांग्लादेश	-9.42298
▁तरीके	-9.42298
▁रास्ता	-9.42299
▁निकट	-9.42332
▁किसानों	-9.42432
▁जल्द	-9.42458
▁स्व	-9.42473
▁सै	-9.42568
▁नतीज	-9.42598
▁शूल	-9.426
▁चरण	-9.42659
▁टे	-9.42967
तम	-9.43033
▁तत्व	-9.43077
्ज	-9.43189
▁मुँह	-9.43199
▁बांस	-9.43269
▁आदर्श	-9.43386
▁रोज	-9.43564
▁रू	-9.43881
▁सदा	-9.44024
जि	-9.44042
▁सम्मान	-9.44132
▁दौर	-9.44137
▁लड़	-9.44141
▁नाग	-9.44218
▁लाने	-9.44232
ृत	-9.44236
▁उद्	-9.44246
▁रखी	-9.44252
▁ब्र	-9.44328
▁जे	-9.44373
▁सिद्ध	-9.44389
▁मिलकर	-9.44445
णी	-9.44802
हजार	-9.44865
दूसरे	-9.4487
ज्	-9.44969
▁संसद	-9.45021
▁माध्यम	-9.45026
▁समझौते	-9.45026
▁परीक्षण	-9.45028
▁तीसरे	-9.45037
▁इसीलिए	-9.4505
▁कही	-9.45166
▁परम्परा	-9.45193
▁सुविधा	-9.45232
▁लेख	-9.45292
▁जम	-9.45477
▁शाह	-9.4551
▁जिसकी	-9.45534
उन	-9.45568
ॉट	-9.45744
▁हे	-9.45882
▁दरअसल	-9.45951
▁गिरावट	-9.45952
▁सैन्य	-9.45952
▁रास्ते	-9.45952
▁ज़	-9.46051
▁बढ़ने	-9.46061
▁मालिक	-9.46107
टि	-9.46297
▁किस्म	-9.46369
▁अंग्रेजी	-9.46483
ंडा	-9.46583
▁चुप	-9.46594
▁नागरिकों	-9.46616
▁बजाय	-9.4664
पट	-9.46648
दि	-9.46654
▁पशु	-9.46857
▁आशंका	-9.46886
▁बेहद	-9.46886
▁संसार	-9.46922
▁उभर	-9.4694
▁सामना	-9.46953
▁बदलाव	-9.46984
यल	-9.47048
▁ऑ	-9.47113
▁बीमारी	-9.47221
गल	-9.47231
▁निजी	-9.47249
्यु	-9.47442
▁ओबामा	-9.47456
ल्ल	-9.47622
▁25	-9.47731
▁खुफिया	-9.47829
▁फैसले	-9.47829
▁अन्दर	-9.47831
▁इस्लाम	-9.48059
गार	-9.4821
िटी	-9.48243
लग	-9.48308
▁घूम	-9.48321
▁लगते	-9.48336
लिंग	-9.48364
पूर्वक	-9.48433
▁१८	-9.48446
सन	-9.48538
उप	-9.48563
▁दर्शन	-9.4857
▁भेजा	-9.48666
▁धान	-9.48697
▁बढ़कर	-9.48779
▁वंश	-9.48785
▁वायु	-9.48794
▁संयुक्त	-9.48812
▁प्रवेश	-9.48812
▁मुझसे	-9.48862
▁बेटे	-9.48876
पूर्व	-9.48899
▁मंदिर	-9.48912
ुआ	-9.48979
▁प्रसिद्ध	-9.4905
र्व	-9.49115
▁19	-9.49292
▁तु	-9.49293
▁रखना	-9.49325
▁कू	-9.49347
▁करवा	-9.49363
▁जीव	-9.49364
▁समर्थक	-9.49463
▁सूत्रों	-9.49484
ाते	-9.49488
रात	-9.49506
▁रखे	-9.49515
पत	-9.49653
▁हाँ	-9.49702
▁ऑस्ट्रेलिया	-9.49743
▁अभियान	-9.49755
▁प्रयत्न	-9.49854
▁बुरा	-9.49874
जीवन	-9.49905
▁बाबू	-9.4991
ादि	-9.50068
▁अहम	-9.50098
भु	-9.50144
▁प्राण	-9.5034
▁पाई	-9.50345
ाइड	-9.50382
▁७	-9.50403
▁सकें	-9.5041
▁शि	-9.50462
▁पो	-9.50564
▁देवी	-9.50583
▁मामला	-9.50715
▁बाग	-9.50731
हुए	-9.50747
ब्र	-9.5083
▁स्वप्न	-9.50879
ाद	-9.51128
▁फसलों	-9.51134
सुन	-9.51172
मार	-9.51194
किसी	-9.51271
▁शो	-9.51374
ायी	-9.51436
कै	-9.51536
डॉलर	-9.51671
▁जिन्हें	-9.51694
▁मुस्लिम	-9.51694
▁व्यापक	-9.51696
▁राजीव	-9.51698
▁अंतिम	-9.51707
▁खिलाड़ी	-9.51708
निक	-9.51718
वाल	-9.51905
ियम	-9.51907
▁चाय	-9.51956
▁देखी	-9.51988
▁उनको	-9.52013
ंध	-9.52157
▁बैंकों	-9.52189
र्न	-9.5231
▁16	-9.52572
गम	-9.52627
▁अखबार	-9.52685
बद्ध	-9.52706
▁बहु	-9.52714
स्प	-9.52723
▁जरूर	-9.52787
▁बेटी	-9.52791
शु	-9.52797
▁प्राकृतिक	-9.52864
▁कर्ज	-9.52929
लों	-9.52963
▁९	-9.52973
▁बिल	-9.52978
ोंमें	-9.53028
▁अली	-9.5308
▁पित्त	-9.5317
▁राजनीति	-9.53238
▁सुन्दर	-9.53269
बन	-9.53308
रस	-9.53338
▁खेत	-9.53532
प्त	-9.53553
▁तथ्य	-9.53685
▁फ्रांस	-9.53685
▁हँस	-9.5369
▁खून	-9.53724
▁वर्षों	-9.53752
▁यूरोप	-9.53758
करण	-9.53764
▁यद्यपि	-9.53778
ट्र	-9.53826
▁कॉ	-9.53892
अधिक	-9.53917
▁जय	-9.53925
▁८	-9.53925
▁भाषाओं	-9.53989
बात	-9.54097
क्ट	-9.54554
होने	-9.54585
▁डाक्टर	-9.54706
▁अर्थव्यवस्था	-9.54713
▁अधिकांश	-9.54717
▁निर्भर	-9.54719
हल	-9.54745
▁उद्देश्य	-9.54767
▁गैर	-9.54807
▁प्रकाशित	-9.54846
▁आर्य	-9.54898
▁प्रदान	-9.5502
फल	-9.55449
नल	-9.55559
डर	-9.55652
▁सोने	-9.55677
▁घुस	-9.5569
▁तालिबान	-9.55715
▁मोबाइल	-9.55715
▁वातावरण	-9.55715
▁मौसम	-9.55771
▁पत्थर	-9.55833
तथा	-9.55862
▁सैनिक	-9.56037
बाल	-9.56038
शक्ति	-9.5612
कुल	-9.56203
णा	-9.56234
ेंस	-9.56307
देख	-9.56415
▁आय	-9.56497
▁हटा	-9.56529
▁लगाए	-9.56614
्रा	-9.5663
▁सूची	-9.56766
▁बैल	-9.56802
▁स्कोर	-9.56815
▁समुदाय	-9.56854
मात्र	-9.569
मुख	-9.56907
▁रेल	-9.56941
▁बहन	-9.57001
▁सहित	-9.57032
महीने	-9.5712
▁मार्ग	-9.57128
▁डाला	-9.57194
▁रचना	-9.5721
धु	-9.57293
▁नयी	-9.57324
▁व्यक्त	-9.57528
दारी	-9.57779
▁बिक्री	-9.57791
▁चूर्ण	-9.57795
▁चोट	-9.57797
पास	-9.57975
▁बंगाल	-9.58
▁13	-9.58011
▁औ	-9.58351
ारा	-9.58454
जनक	-9.58526
म्म	-9.5855
स्य	-9.58585
▁पश्चिमी	-9.58637
भाग	-9.58644
▁पुनः	-9.58841
▁झूठ	-9.58841
▁पुरानी	-9.58854
▁निपट	-9.58888
▁केंद्रीय	-9.5891
तीन	-9.58984
▁सामान	-9.58988
न्ना	-9.59056
▁चुन	-9.59066
प्ल	-9.5908
एन	-9.59099
ेड	-9.59218
▁आसान	-9.59334
▁खिला	-9.59395
▁कहकर	-9.59424
▁करेगी	-9.59438
▁पाते	-9.59607
वेद	-9.5973
▁मीडिया	-9.59904
▁चुनौती	-9.59904
▁लंदन	-9.59905
▁अरब	-9.59913
▁उपाय	-9.5993
▁लगने	-9.59931
कह	-9.60005
▁स्थापना	-9.6005
▁लेखक	-9.60213
हु	-9.60278
क्टर	-9.60287
▁केबीच	-9.60294
▁स्प	-9.60349
ट्ट	-9.60452
लू	-9.60579
▁बनाई	-9.60622
्ह	-9.60633
ल्स	-9.6082
यान	-9.60845
भि	-9.60847
फी	-9.60954
▁आना	-9.6096
▁जितना	-9.60983
▁काफ़ी	-9.61008
▁आयोग	-9.61198
▁निश्चय	-9.61198
▁हालत	-9.61333
▁शेर	-9.61396
▁शिव	-9.61443
फू	-9.61468
▁खाते	-9.61538
धन	-9.61608
चक	-9.6197
▁पहुंचे	-9.61999
▁प्रशासन	-9.62002
िश	-9.62041
▁चेतावनी	-9.62066
▁सुप्रीम	-9.62066
▁संवाददाता	-9.62067
▁जनरल	-9.62069
▁नींद	-9.62076
▁उन्हीं	-9.62078
▁खाद्य	-9.62147
▁आउट	-9.62151
एल	-9.62156
▁ब्राह्मण	-9.62212
▁पद्धति	-9.62327
▁बुला	-9.62375
▁ट्रेन	-9.62381
▁पश्चिम	-9.62462
▁२०	-9.62584
▁खुला	-9.62711
रानी	-9.62769
▁करा	-9.62772
छा	-9.62776
िस	-9.62824
▁चौ	-9.62863
ज़ा	-9.62891
▁वात	-9.62902
वल	-9.6303
सम	-9.63082
▁हृदय	-9.63156
▁कर्मचारियों	-9.63165
▁सीमित	-9.63169
ल्ले	-9.63186
▁सीख	-9.63264
▁मस्तिष्क	-9.63304
▁उपकरण	-9.63328
▁सहयोग	-9.63394
▁बीस	-9.63395
उसके	-9.63413
▁प्रणाली	-9.63449
▁केलिए	-9.63493
▁मूत्र	-9.6352
िय	-9.63525
▁क्षण	-9.63607
▁जिम्मेदारी	-9.63698
सब	-9.63716
▁निवेशक	-9.63749
▁सुनकर	-9.64015
▁मिलते	-9.64051
ऊं	-9.64075
▁वास्तव	-9.64192
कोई	-9.64269
▁प्रवक्ता	-9.64277
▁अनुमति	-9.64277
▁चांदी	-9.64277
▁उत्साह	-9.64277
▁इलाके	-9.64278
▁खराब	-9.6428
पर्सेंट	-9.6428
▁कपड़े	-9.64308
▁लेती	-9.64314
▁राशि	-9.64317
सम्	-9.64324
याँ	-9.64372
उसे	-9.64395
▁लड़का	-9.64454
जर	-9.64486
ोंको	-9.64674
▁आँखों	-9.6477
ुओं	-9.64843
▁आशा	-9.6485
▁शु	-9.64855
▁राज्यों	-9.64899
▁उपज	-9.64953
धर	-9.64973
▁गौरतल	-9.65101
▁नौकर	-9.65121
▁तुमने	-9.65156
▁सहज	-9.65232
▁अर्	-9.65265
▁कोच	-9.65311
▁इंसान	-9.65405
व्यवस्था	-9.65433
▁ख़तर	-9.65434
भाषा	-9.65444
मुझे	-9.65455
वंश	-9.65471
▁गुजर	-9.65484
िड	-9.6552
▁दबा	-9.65533
▁बरस	-9.65549
▁शनि	-9.65563
▁अग्नि	-9.65574
▁प्रचार	-9.6558
▁शिक्षण	-9.65658
▁मुक्त	-9.6579
▁पापा	-9.65815
यन	-9.65971
▁सरल	-9.65977
▁काली	-9.65984
▁गाड़ी	-9.66
शाह	-9.66273
मै	-9.66373
हत	-9.66421
▁कौ	-9.66445
▁हरा	-9.66479
वत	-9.66536
▁भूकंप	-9.66536
▁दिमाग	-9.66537
▁पसंद	-9.66537
▁सप्ताह	-9.66539
▁संयुक्तराष्ट्र	-9.66541
▁18	-9.66568
बहुत	-9.66606
ठी	-9.66642
▁सफेद	-9.66643
▁छवि	-9.66673
▁रानी	-9.66676
▁बदले	-9.66689
▁इं	-9.6671
▁पिताजी	-9.66712
▁बजे	-9.66768
▁एक्स	-9.66872
जु	-9.66883
▁०	-9.66976
फिर	-9.67003
स्तर	-9.67022
च्च	-9.67035
▁भेद	-9.67048
▁..	-9.672
▁शर्म	-9.67201
▁आसानी	-9.67346
नगर	-9.67629
▁40	-9.67671
▁संघ	-9.67673
▁आयरलैंड	-9.67686
▁औसत	-9.67687
▁बांध	-9.67717
मीटर	-9.67767
▁स्मिता	-9.67831
▁भरत	-9.67834
▁सिद्धान्त	-9.67901
▁निदेशक	-9.67907
▁ज़र	-9.67918
▁व्य	-9.67923
▁परीक्षा	-9.67953
▁देखता	-9.6798
▁पड़ती	-9.68083
▁...	-9.68146
▁विजय	-9.68166
उसने	-9.68183
▁श्	-9.68272
▁कहती	-9.683
▁निर्देश	-9.68326
कार्य	-9.68332
▁पं	-9.68414
▁मौ	-9.68431
ात	-9.6849
्ड	-9.68502
▁औषधि	-9.68657
ऐ	-9.68673
.5	-9.68752
सल	-9.68771
▁आयोजन	-9.68849
▁वरिष्ठ	-9.68849
▁खतरा	-9.6885
▁शहरों	-9.68852
▁पुष्टि	-9.68853
▁भैया	-9.68876
ग्रस्त	-9.68918
▁युवक	-9.68997
▁अनुसंधान	-9.69008
तुम	-9.69024
▁मुद्दे	-9.69037
▁प्रो	-9.69133
▁जर्मनी	-9.69203
▁साधारण	-9.69324
▁युवा	-9.69354
▁आधारित	-9.69355
पिता	-9.69416
ियत	-9.69438
▁सफलता	-9.69456
▁भरी	-9.69469
▁सम्	-9.6978
▁जानकार	-9.69858
नाम	-9.69921
▁घायल	-9.70025
▁समझौता	-9.70026
▁रुचि	-9.70062
किलोमीटर	-9.70079
▁समस्त	-9.70089
▁धरती	-9.7011
▁तुम्हारी	-9.70135
▁मौका	-9.70171
▁अन्तर	-9.70214
ैल	-9.70231
▁दूरी	-9.70249
▁सदस्यों	-9.7043
▁भला	-9.7065
▁लगाकर	-9.70742
▁ची	-9.70797
माल	-9.70857
▁रेट	-9.711
▁विरुद्ध	-9.71216
▁शारीरिक	-9.71216
▁खिलाड़ियों	-9.71216
▁इमारत	-9.71216
▁सिस्टम	-9.71216
▁कारणों	-9.7123
▁सौंप	-9.7126
▁टीवी	-9.71264
▁फैला	-9.71286
▁राहत	-9.71302
▁गोली	-9.71305
समझ	-9.7136
▁जाएंगे	-9.71371
▁नृत्य	-9.7138
▁उल्लेख	-9.7139
अपनी	-9.7139
20	-9.71402
ॉल	-9.71403
▁जोड़	-9.71492
▁तैयारी	-9.71517
▁कैंसर	-9.7159
दूर	-9.71701
धी	-9.71703
ॉन	-9.71779
घो	-9.71803
▁सूत्र	-9.72017
▁ताकत	-9.72108
▁स्वा	-9.72149
रोध	-9.72168
शे	-9.7223
▁रखता	-9.72261
▁बम	-9.72298
रहा	-9.72364
शो	-9.72367
▁दोस्त	-9.72371
▁विशिष्ट	-9.7242
▁अक्सर	-9.72422
▁फिलहाल	-9.72422
▁सभ्यता	-9.72423
▁कल्पना	-9.72423
्थ	-9.72438
▁महंगाई	-9.72445
▁मुह	-9.72472
▁शांति	-9.72489
▁आत्मा	-9.72541
▁बच्चा	-9.72558
▁साधन	-9.72623
जू	-9.72751
वै	-9.72765
▁नागरिक	-9.72779
▁वृक्ष	-9.72792
ोप	-9.72897
▁नव	-9.73052
बड़ी	-9.73085
▁रखकर	-9.73299
हरी	-9.73559
▁पाये	-9.73569
▁मौजूदा	-9.73584
▁हथियारों	-9.73634
▁वेबसाइट	-9.7364
▁हिंदू	-9.7364
▁तुरंत	-9.7364
▁दरवाजे	-9.7364
▁हिंसा	-9.73645
▁बुधवार	-9.73661
▁वित्तीय	-9.73681
▁धो	-9.73689
▁किनारे	-9.73754
▁आश्चर्य	-9.73767
▁सकेगा	-9.73797
▁भले	-9.73866
▁जज	-9.73887
▁ख़	-9.7402
▁दास	-9.741
गन	-9.74115
कट	-9.74154
हुआ	-9.74166
▁बंध	-9.74276
▁सीट	-9.743
ोस	-9.74477
हाँ	-9.74621
▁हु	-9.74647
ड्र	-9.74683
स्थान	-9.74715
ढ़ा	-9.74855
▁फायदा	-9.74874
▁ग्रामीण	-9.74876
▁आबादी	-9.74877
▁अपील	-9.74881
भिन्न	-9.7489
▁शेष	-9.74891
▁संयंत्र	-9.74898
ल्फ	-9.74929
▁वित्त	-9.7497
हू	-9.75033
▁टिकट	-9.7504
बिन	-9.75071
▁अफसर	-9.7514
मंत्री	-9.75167
▁शक	-9.75266
▁जग	-9.75267
भारत	-9.75268
▁स्थानों	-9.754
भू	-9.75518
बना	-9.75726
एसआई	-9.75856
▁होनी	-9.75953
र्ण	-9.76028
▁सलाह	-9.76034
क्षित	-9.76063
▁इंटरनेट	-9.76124
▁तलाश	-9.76131
▁परस्पर	-9.76132
▁हेतु	-9.76139
▁धारा	-9.76165
▁दर्द	-9.76167
▁पूजा	-9.76171
▁संदेश	-9.76192
▁नियमों	-9.76223
▁ग्रहण	-9.76224
▁समा	-9.76269
शास्त्र	-9.76298
▁कष्ट	-9.76313
▁कक्षा	-9.76337
▁श्रीमती	-9.7638
▁कहाँ	-9.76473
▁त्रि	-9.76475
▁महाराष्ट्र	-9.76483
्टी	-9.76484
▁14	-9.76556
▁पाल	-9.76581
▁मक	-9.76601
अब	-9.76672
▁पड़ने	-9.76691
▁गुप्त	-9.76712
▁लै	-9.76872
▁विशेषता	-9.7693
बजे	-9.77004
कान	-9.77046
▁स्वतंत्र	-9.77074
▁भरे	-9.77135
▁१५	-9.77147
▁पहन	-9.77152
▁कस	-9.77389
▁जिन्होंने	-9.7739
▁संसाधन	-9.7739
▁किशोरी	-9.77395
▁संविधान	-9.77399
▁इलाज	-9.774
▁साहस	-9.77401
▁इन्हीं	-9.77403
▁स्वस्थ	-9.77404
▁प्रतीत	-9.77404
▁प्रतिबंध	-9.77418
▁सुंदर	-9.77423
▁होटल	-9.77467
▁सांसद	-9.7747
ोल	-9.77496
जाती	-9.77504
▁कड़ी	-9.77549
▁जीवित	-9.77558
▁क्रांति	-9.77596
▁वैदिक	-9.77621
▁जला	-9.77635
▁खुल	-9.77636
▁ग्रुप	-9.77653
▁गंगा	-9.77717
पोर्ट	-9.77726
▁स्वरूप	-9.77726
रिक	-9.77865
▁ईरान	-9.77945
▁छा	-9.7802
रोग	-9.7807
बाज	-9.78071
लोग	-9.78097
जित	-9.78152
▁तट	-9.78192
ौर	-9.78238
हरा	-9.78347
जाने	-9.78367
▁भीड़	-9.78444
औ	-9.78455
बंद	-9.7848
मल	-9.78546
▁हद	-9.78573
ेंद्र	-9.78613
▁मुकाबले	-9.78672
▁विस्फोट	-9.78672
▁सक्रिय	-9.78672
▁निर्यात	-9.78674
▁अकेले	-9.78675
विकीलीक्स	-9.78675
▁दस्तावेज़	-9.78687
▁बजा	-9.7871
▁प्रदर्शनकारियो	-9.78745
▁परियोजना	-9.78749
षि	-9.7876
▁सौर	-9.7879
▁सहमत	-9.78809
कारक	-9.78839
▁चिकित्सक	-9.78877
ांक	-9.78915
▁वर्ल्डकप	-9.78934
▁जाओ	-9.79019
ऊ	-9.79073
द्वारा	-9.79091
रहे	-9.79104
▁जुड़ी	-9.79124
धान	-9.79174
▁उठी	-9.79239
वीर	-9.79262
हित	-9.79351
रन	-9.79464
ंडे	-9.79496
टु	-9.79516
मत	-9.79521
▁दान	-9.79572
▁बल्लेबाज	-9.79645
▁वर्षा	-9.79768
▁अर्जुन	-9.79971
▁सहायक	-9.79971
▁विधानसभा	-9.79974
▁डूब	-9.7999
कथित	-9.79997
नर	-9.80052
मारी	-9.80086
▁प्रारम्भ	-9.80121
▁प्रचलित	-9.80164
▁उठे	-9.80208
जै	-9.80217
▁अंतर	-9.80251
▁कराने	-9.80302
ूँगा	-9.80323
▁फुट	-9.80338
▁छात्र	-9.80373
▁आंख	-9.80395
▁आराम	-9.80483
▁महान	-9.80622
▁ऊ	-9.80635
श्री	-9.8064
▁परेशान	-9.80664
़ा	-9.80699
▁कविता	-9.80876
जान	-9.80893
क्ल	-9.80953
यु	-9.81036
▁जानने	-9.81076
▁अंग्रेज	-9.81135
▁सचमुच	-9.81287
▁चेहरा	-9.81296
▁जहाज	-9.81305
करोड़रुपये	-9.81307
▁प्रतिक्रिया	-9.81325
पल	-9.81333
सह	-9.81335
▁आक्रमण	-9.81339
▁स्वाभाविक	-9.81425
फ्ल	-9.81443
▁सिख	-9.81474
▁पू	-9.8152
गांधी	-9.81537
ेयर	-9.81544
तू	-9.81549
्यो	-9.81574
▁वाक्य	-9.81607
▁सां	-9.81642
▁संस्कृत	-9.81645
मय	-9.81657
▁कुमार	-9.81818
्य्	-9.81914
▁समझते	-9.82099
ज्ञा	-9.82112
▁बढ़ते	-9.82192
द्य	-9.82211
▁यंत्र	-9.82243
▁प्रतीक	-9.82345
▁निकलने	-9.82398
▁सैनिकों	-9.82409
▁पदार्थों	-9.8258
▁जून	-9.82584
▁चट्टान	-9.8262
▁नज़र	-9.82634
▁तनाव	-9.82635
▁साइ	-9.8264
▁प्रबंध	-9.82649
दू	-9.82668
▁३०	-9.82686
▁अत्यन्त	-9.82752
▁सिर्फ़	-9.82759
ाइज	-9.82839
▁हवाई	-9.82844
▁योग्य	-9.82962
िस्तान	-9.82984
▁पालन	-9.83066
विचार	-9.83097
▁माँग	-9.83119
▁ट्र	-9.83172
▁60	-9.83179
▁जनवरी	-9.83188
जिस	-9.83216
▁बज	-9.83248
▁घाट	-9.83301
▁१२	-9.83408
होते	-9.83568
▁चौक	-9.83881
▁शाखा	-9.8392
▁विस्तार	-9.83972
▁लंबी	-9.83972
▁दोपहर	-9.83972
▁सड़कों	-9.83972
▁कामयाब	-9.83992
▁आँखें	-9.84033
▁कराया	-9.84071
▁खेलने	-9.84073
▁पशुओं	-9.84092
िनी	-9.84142
रुप	-9.84146
▁हस्त	-9.84168
▁मिलेगा	-9.8417
▁पीड़ा	-9.8417
▁उगा	-9.84176
▁मोहम्मद	-9.84188
▁नो	-9.84209
▁समझने	-9.84211
पार्टी	-9.84262
▁छप	-9.84301
▁त्याग	-9.84352
▁बर्	-9.84356
▁युक्त	-9.84382
▁जाग	-9.84384
▁हिस्से	-9.84481
द्द	-9.84603
▁पाक	-9.84763
▁नील	-9.84965
▁सबको	-9.84984
ात्	-9.84991
▁हमल	-9.85027
▁सकी	-9.85219
्रो	-9.85233
▁जितनी	-9.85343
▁पुनर्	-9.85349
▁अजीब	-9.85358
▁जाहिर	-9.85361
▁यज्ञ	-9.85364
▁आदत	-9.85367
▁उपयुक्त	-9.85381
▁गोल्ड	-9.85381
▁गहरी	-9.85388
▁चमक	-9.854
▁घोटाले	-9.8541
▁पट	-9.85412
▁वास्तविक	-9.85446
▁व्यवसाय	-9.85455
▁यौगिक	-9.8547
▁अंश	-9.85472
▁जायेगी	-9.85481
▁गेंदबाज	-9.85512
▁प्रगति	-9.85569
▁क्यू	-9.85573
च्	-9.85615
▁ध्वनि	-9.85626
▁आजादी	-9.85627
▁अस्थि	-9.85633
▁अस्पताल	-9.85636
▁व्यक्तियों	-9.85666
▁कवि	-9.85674
▁संबंधित	-9.85759
अल	-9.8576
▁पीठ	-9.85766
▁देगा	-9.85788
▁जिसने	-9.85882
▁स्थिर	-9.85888
▁शुद्ध	-9.85946
ानी	-9.86041
▁बचाने	-9.86075
▁सत	-9.86144
कला	-9.86159
▁मुझ	-9.86339
ंगा	-9.8637
▁क्रम	-9.86416
काम	-9.86514
▁खुशी	-9.86528
▁वर्णन	-9.86555
सुर	-9.86579
▁नेपाल	-9.86698
▁कहे	-9.86703
▁सम्मेलन	-9.8673
▁सुझाव	-9.8673
▁हिन्दी	-9.86731
▁माय	-9.86795
▁तुम्हारा	-9.8683
▁आंखें	-9.86836
▁व्यक्तित्व	-9.86838
कॉ	-9.86853
त्री	-9.86875
▁शीघ्र	-9.86876
▁प्रसन्न	-9.86876
▁छाया	-9.86899
▁बैठी	-9.86906
▁मिलेगी	-9.86918
पड़	-9.86934
▁मुद्रा	-9.86968
▁सतह	-9.86972
▁सामग्री	-9.86998
दम	-9.87007
▁अमल	-9.87049
▁बताते	-9.87136
▁भरा	-9.87188
्ल	-9.87237
▁चाल	-9.87385
▁दू	-9.87559
महा	-9.87572
▁शुरूकर	-9.87613
१०	-9.87708
ताओं	-9.87801
श्च	-9.87833
▁विचारों	-9.87862
दर्शन	-9.87908
हाल	-9.88034
▁मानो	-9.8805
▁मीटर	-9.88083
गुल	-9.88109
▁मजबूर	-9.88139
▁समेत	-9.8814
▁वीणा	-9.88154
▁योगदान	-9.88161
▁विश्लेषण	-9.8824
▁संचार	-9.88269
धे	-9.8827
▁सांस्कृतिक	-9.88271
▁बुरी	-9.88287
▁ब्रिटिश	-9.88302
▁नाइट्रोजन	-9.88317
▁बुद्धि	-9.88421
▁विद्या	-9.88534
▁उठाया	-9.88558
वाला	-9.88762
होती	-9.88803
▁बचने	-9.88893
▁मना	-9.8894
न्स	-9.89108
श्य	-9.89137
देह	-9.89154
ंदा	-9.89164
डाल	-9.89227
त्ता	-9.89276
राज्य	-9.8952
▁क़ीमत	-9.89567
▁जिंदगी	-9.89567
▁संपर्क	-9.89567
▁जताई	-9.89569
▁गुजरात	-9.89589
▁स्वागत	-9.89593
▁कपिल	-9.89596
▁थक	-9.89604
बोल	-9.8967
▁जायें	-9.89678
▁उत्तरी	-9.89709
▁बेटा	-9.89751
जिन	-9.89801
गांव	-9.89966
पान	-9.90055
▁तह	-9.90109
वालों	-9.90149
▁चु	-9.904
▁टो	-9.90463
दास	-9.906
गिर	-9.90665
▁बालक	-9.90718
्री	-9.90764
▁यहीं	-9.90872
युग	-9.90999
▁कॉमनवेल्थ	-9.91016
▁आलोचना	-9.91016
▁विपरीत	-9.91016
▁हरियाणा	-9.91016
▁लंबे	-9.91017
▁जाँच	-9.91017
▁ब्याज	-9.91032
करोड़रुपए	-9.91042
▁मतदान	-9.91056
िमा	-9.91091
▁आजकल	-9.91139
खान	-9.91145
▁उड़ान	-9.91219
▁ग्रा	-9.91267
▁सेक्टर	-9.91343
▁पृथक	-9.91348
▁ब्रह्म	-9.91349
▁सुर	-9.91403
▁मोह	-9.91421
▁एड	-9.9148
मार्च	-9.91489
ग्रह	-9.91518
▁जिनका	-9.91778
▁अस	-9.91802
▁खुले	-9.91853
ान्त	-9.91897
▁निकालने	-9.919
जीत	-9.92005
▁बालकों	-9.92038
▁गिरा	-9.92105
ूल	-9.92138
नीय	-9.92179
कू	-9.922
रही	-9.92212
▁कीट	-9.92224
▁देखो	-9.92248
राजा	-9.92266
▁पढ़ा	-9.92319
▁गरम	-9.92351
▁तत्वों	-9.92397
लोक	-9.92453
▁एच	-9.92478
▁चुपचाप	-9.92487
▁कर्मचारी	-9.92487
▁लड़कियों	-9.92488
▁उतना	-9.92489
▁याचिका	-9.92489
▁बरामद	-9.92491
▁गुस्सा	-9.92492
▁ठोस	-9.925
▁रसायन	-9.92505
▁भाषण	-9.9251
क्यों	-9.92542
▁शर्मा	-9.92554
▁गर्भ	-9.92606
ह्	-9.92624
▁बैठकर	-9.92655
▁पत्तियों	-9.92669
▁आधी	-9.92724
▁श्रेष्ठ	-9.92804
▁ग्रन्थ	-9.9282
▁हाई	-9.92837
चन	-9.9284
▁बल्लेबाज़	-9.92858
▁स्वतंत्रता	-9.92864
▁रिहा	-9.92961
ीं	-9.92992
▁पीने	-9.93052
▁उठता	-9.93141
▁इंडिया	-9.93144
वर्ग	-9.93176
▁सेवन	-9.93209
▁वर्	-9.93353
ैस	-9.93392
्वा	-9.9341
खो	-9.93478
▁ग्	-9.9351
▁रूस	-9.93544
▁करार	-9.93608
ांत	-9.93701
▁देखना	-9.93711
▁नियुक्त	-9.93717
्हे	-9.93795
▁जाएं	-9.93829
टिव	-9.93842
▁पहुंचने	-9.93916
▁निर्धारित	-9.9398
▁चक्कर	-9.93982
▁शर्त	-9.93994
▁हालात	-9.94005
▁राजस्थान	-9.94015
▁यथा	-9.9404
▁मई	-9.94042
▁संबंधी	-9.94056
▁लेट	-9.94058
▁ज्यादातर	-9.94193
▁आकाश	-9.94207
▁हजारों	-9.94209
दल	-9.94223
▁रॉ	-9.94276
एंगे	-9.94343
▁बचाव	-9.94365
यंत्र	-9.94377
▁आहार	-9.94469
जैसे	-9.94549
रत	-9.9455
▁पढ़ने	-9.94595
कोर्ट	-9.94613
त्थ	-9.94917
वाई	-9.94977
▁हट	-9.95127
▁भार	-9.9519
▁अंग्रेजों	-9.95193
वेश	-9.95224
▁वृ	-9.9526
▁हैक्टर	-9.95463
▁क़ानून	-9.95495
▁फ़ैसला	-9.95495
▁तुझे	-9.95495
▁इलाकों	-9.95495
▁लम्बी	-9.95496
▁पतंग	-9.95497
नियोजन	-9.95498
▁गौतम	-9.95502
▁वकील	-9.95503
▁ज्ञात	-9.95521
▁लड़कों	-9.95525
अरबडॉलर	-9.9553
▁स्टडी	-9.95544
दिनों	-9.9556
▁निकाला	-9.95623
▁गईं	-9.95625
▁ईश्वर	-9.95654
▁जेब	-9.957
▁मसल	-9.95769
▁सूख	-9.95886
शब्द	-9.9595
▁धारणा	-9.9596
▁देवता	-9.96078
▁लाया	-9.96092
ल्ट	-9.96095
सेन	-9.96108
▁मेम	-9.96129
▁सुनी	-9.96194
ायन	-9.96247
फ्र	-9.96314
▁चाह	-9.96315
क्शन	-9.9634
वेल	-9.96376
▁जिम्मेदार	-9.964
▁मिनट	-9.96464
ज्ञान	-9.96523
▁सहयोगी	-9.9655
खु	-9.96633
रुपए	-9.96649
▁मार्च	-9.96671
▁दुब	-9.96693
▁प्ल	-9.96747
▁उठाकर	-9.96792
▁तीव्र	-9.96971
▁ऐतिहासिक	-9.97033
▁परिचय	-9.97033
▁घरेलू	-9.97034
▁क्रोध	-9.97035
▁मशीन	-9.97036
▁मॉडल	-9.97036
▁17	-9.9708
▁धूप	-9.97116
▁पुकार	-9.97147
▁ऑफ	-9.97152
▁जवान	-9.97157
▁रुख	-9.97172
ान्तर	-9.97222
▁अध	-9.97266
▁महीनों	-9.97282
▁झुक	-9.9731
साहित्य	-9.97507
व्यक्ति	-9.97519
▁23	-9.97585
रंग	-9.97651
▁2010	-9.97719
▁शांत	-9.97739
लक	-9.97753
कोरिया	-9.97803
पाही	-9.97823
▁वेद	-9.97933
▁सदन	-9.97946
गढ़	-9.97962
▁चढ़ा	-9.98117
सभा	-9.98161
लिन	-9.98204
▁टिक	-9.9835
नारायण	-9.9838
▁तल	-9.98445
▁फर्	-9.98455
▁अत्यधिक	-9.98596
▁अस्तित्व	-9.98596
▁रिएक्टर	-9.98596
▁सम्भव	-9.98596
▁बीजेपी	-9.98596
▁सिद्धांत	-9.98604
▁स्कीम	-9.98614
नायक	-9.98626
▁डेढ़	-9.98719
▁100	-9.98765
मीन	-9.9879
▁चीजें	-9.98811
▁डो	-9.98868
▁लोन	-9.98891
▁सुनने	-9.98923
▁समस्याओं	-9.98952
बोध	-9.99037
▁रच	-9.9906
हज़ार	-9.99095
कृष्ण	-9.99098
▁नारी	-9.99104
▁रखती	-9.99122
▁फ्र	-9.99133
▁मुसलमान	-9.99295
▁नर	-9.99343
▁बढ़ाकर	-9.99394
▁आतंकवाद	-9.99425
वो	-9.99563
▁बू	-9.99608
▁निकला	-9.99699
▁लहर	-9.99823
▁छिप	-9.99989
▁मिश्र	-10
टिंग	-10.0011
ेश्वर	-10.0016
▁गतिविधियों	-10.0018
▁सीबीआई	-10.0018
▁इलाक़	-10.0018
▁मम्मी	-10.0018
▁मुआवज	-10.0018
▁आरम्भ	-10.0019
▁मान्यता	-10.0019
▁अमीर	-10.0019
▁परिस्थितियों	-10.002
▁प्रशिक्षण	-10.0023
▁औषधियों	-10.0028
▁डाली	-10.0035
▁पहुँचा	-10.0037
ूंगा	-10.0038
▁खाद	-10.0042
▁प्रताप	-10.0048
▁निभा	-10.0053
बाजी	-10.0054
▁पक	-10.0055
▁छिपा	-10.0056
▁प्रथा	-10.0056
▁चीजों	-10.0061
बन्ध	-10.0065
▁प्लांट	-10.0067
तंत्र	-10.0069
क्रिकेट	-10.0071
छोटे	-10.0073
िता	-10.0082
▁पश्चात्	-10.0086
▁आतंकवादी	-10.0094
ावस्था	-10.0103
लाई	-10.0107
ल्क	-10.0109
शाली	-10.0111
▁माने	-10.0112
▁मरने	-10.012
▁जीन	-10.012
▁फी	-10.0121
कता	-10.0128
▁लॉ	-10.0142
▁होंगी	-10.0154
य्या	-10.0155
▁बनाये	-10.0157
▁हॉ	-10.0157
सूर	-10.016
त्मक	-10.0164
मूल	-10.0174
ओर	-10.0175
▁होताहै	-10.0176
▁गहरा	-10.0177
▁आयोजित	-10.018
▁प्रत्यक्ष	-10.018
▁व्याख्या	-10.018
▁घोषित	-10.018
▁दरवाजा	-10.018
क्षक	-10.0181
▁इन्द्र	-10.0181
तन्त्र	-10.0182
▁जीवाणु	-10.0183
▁संदेह	-10.0183
▁छि	-10.0184
तियों	-10.0205
▁कैसा	-10.0206
िज	-10.0206
▁बहू	-10.0206
▁बर्फ	-10.0211
▁मन्त्र	-10.0215
▁चरमपंथी	-10.0223
▁रोगों	-10.0223
प्रकाश	-10.0236
▁बढ़ता	-10.0237
▁बाघ	-10.0241
ग्राम	-10.0245
खंड	-10.0251
▁पंच	-10.0252
▁खरीदने	-10.0261
▁जगहों	-10.0264
▁उम्मीदवार	-10.027
▁बताने	-10.0271
ंडी	-10.0279
▁सोचने	-10.028
ंडर	-10.0283
▁दम	-10.0295
▁सवार	-10.0303
▁गिरने	-10.0315
▁दह	-10.032
पाद	-10.0328
▁कागज	-10.0338
▁शीर्ष	-10.0344
▁०००	-10.0345
▁सर्विस	-10.0345
▁अनुपात	-10.0347
▁बचपन	-10.035
▁प्रोफेसर	-10.0354
ण्ट	-10.0354
▁दशा	-10.0355
मैन	-10.0355
▁व्यक्तिगत	-10.0358
▁उत्पाद	-10.0369
▁संग्रह	-10.0375
मह	-10.0376
▁ति	-10.0383
▁अफ्रीका	-10.0386
▁दृश्य	-10.039
▁छत	-10.0392
▁किताब	-10.0395
▁मरीज	-10.0397
पूर्ति	-10.0405
▁गुट	-10.0408
▁जिनकी	-10.0415
▁गाल	-10.0419
▁अप्रैल	-10.0423
▁दक्षिणी	-10.0428
▁ठहर	-10.0442
▁रिसर्च	-10.0459
दीप	-10.0465
इल	-10.0473
▁नाव	-10.0477
▁इनकार	-10.0481
▁श्रद्धा	-10.051
▁मुस्करा	-10.051
▁रेडिए	-10.051
▁साइकिल	-10.051
▁सर्वेक्षण	-10.051
▁माओवाद	-10.0511
▁स्वस्तिक	-10.0511
▁बद	-10.0511
▁उल्लेखनीय	-10.0511
▁संजय	-10.0513
▁घास	-10.0514
▁इंदिरा	-10.052
▁पूरीतरह	-10.0524
▁बस्त	-10.0531
▁मिस	-10.0537
▁हवाले	-10.0539
▁मनो	-10.0539
▁झु	-10.0545
▁जुटा	-10.0546
अप	-10.0547
▁उपलब्धि	-10.0547
गोल	-10.055
▁गुरू	-10.0553
▁वजन	-10.0559
विक	-10.0563
ेन्द्र	-10.0563
▁राव	-10.0572
▁दौरे	-10.0573
▁चोरी	-10.0574
▁बिक	-10.0584
▁चंद	-10.06
▁विविध	-10.0601
▁परेशानी	-10.0606
▁परिषद	-10.0607
िस्	-10.0616
-`	-10.0626
▁बाप	-10.0628
▁अधि	-10.0633
▁प्रसार	-10.0637
ंदर	-10.0645
ग्न	-10.0653
दृष्टि	-10.067
साब	-10.0671
▁अर्थात	-10.0675
▁उल्लंघन	-10.068
▁सख्त	-10.068
▁शिशु	-10.0681
▁दुकान	-10.0682
▁तीसरा	-10.0683
▁इंजन	-10.0684
▁लूट	-10.0684
▁विचित्र	-10.0684
▁दिला	-10.0685
▁प्रमाण	-10.069
▁यु	-10.0697
▁जाताहै	-10.0704
▁संस्कार	-10.0709
▁पूर्वी	-10.0712
▁स्टेशन	-10.0715
▁सुनाई	-10.0718
▁एशिया	-10.0719
शहर	-10.0722
कारों	-10.0724
▁समझता	-10.0725
ढ़ी	-10.0728
▁गले	-10.0738
▁बनकर	-10.0742
▁उठकर	-10.0742
व्यवहार	-10.0744
▁पथ	-10.0747
मां	-10.0753
▁असली	-10.0757
मिनट	-10.0757
यत	-10.0767
▁गयीं	-10.0774
मेरे	-10.0774
▁भि	-10.0776
ेय	-10.0777
हां	-10.0779
▁हिस्सेदार	-10.0787
ठे	-10.0791
▁तंत्र	-10.0796
▁शास्त्र	-10.0801
▁अर	-10.0803
▁यश	-10.0803
▁रहीं	-10.081
▁प्रवृत्ति	-10.0822
ंजी	-10.0827
मंड	-10.0827
्ति	-10.0829
▁प्रभा	-10.0831
गाह	-10.0838
बान	-10.0843
▁ग्रंथ	-10.0852
▁लकड़ी	-10.0852
▁इजाज	-10.0852
▁ब्याह	-10.0852
▁निम्न	-10.0852
▁सर्वाधिक	-10.0853
▁झाड़	-10.0853
▁शासक	-10.0853
▁संभाल	-10.0854
▁२५	-10.0855
सिल	-10.0858
▁कालेज	-10.0859
▁नीतियों	-10.0859
▁भवन	-10.0862
▁वैसा	-10.0866
वृत्ति	-10.0884
▁द्वितीय	-10.0887
▁पत्रकारों	-10.0909
उन्हें	-10.0919
ऊँ	-10.0926
़ी	-10.0927
तांत्रिक	-10.0927
▁संज्ञा	-10.0933
▁विद्वान	-10.0935
▁वर	-10.094
▁विशेषज्ञ	-10.0956
बिल	-10.0957
▁बनता	-10.0964
सेकम	-10.0966
▁ग्रह	-10.0968
बॉ	-10.0995
बढ़	-10.0995
▁घरों	-10.1004
दाता	-10.1021
▁दि	-10.1026
▁कर्नाटक	-10.1028
▁जलवायु	-10.1028
▁कुर्सी	-10.1028
▁पूंजी	-10.1028
▁भैंस	-10.1029
▁उत्तम	-10.103
▁हानि	-10.1036
र्ष	-10.1037
▁प्रयुक्त	-10.1038
▁फे	-10.1039
▁बुलाया	-10.1041
▁काव्य	-10.1043
स्टर	-10.1043
▁आघात	-10.1044
▁गौर	-10.1046
▁दायर	-10.1046
▁आधा	-10.1062
▁भांति	-10.1067
▁सचिव	-10.107
पार	-10.1073
वां	-10.1077
▁गीत	-10.1085
हौल	-10.1087
▁बनाना	-10.1088
▁डाय	-10.1089
मिन	-10.1096
ओबामा	-10.1098
विशेष	-10.1098
पुलिस	-10.1099
▁दुर्	-10.11
▁द्वीप	-10.1103
िव	-10.1109
कारण	-10.1121
▁लगाते	-10.1125
टिओन्	-10.1125
▁स्थल	-10.1126
▁शोधकर्ता	-10.1126
▁हित	-10.1132
▁बादल	-10.1138
▁निकले	-10.1138
▁शत	-10.1147
▁वॉ	-10.115
▁बीत	-10.1165
▁घेर	-10.1177
▁लाखों	-10.1191
तल	-10.1191
▁गोद	-10.1206
फ़ीसदी	-10.1206
▁विस्तृत	-10.1206
▁ऊंची	-10.1206
▁भस्म	-10.1206
▁मंजूर	-10.1206
▁अफगानिस्तान	-10.1206
▁फलस्वरूप	-10.1207
▁द्वार	-10.1207
▁संरचना	-10.1208
▁मील	-10.1208
▁विकल्प	-10.121
▁रामलाल	-10.1214
▁पर्यावरण	-10.1217
▁गौ	-10.1221
▁एयर	-10.1221
▁भौतिक	-10.1223
▁पढ़ाई	-10.1225
▁सौन्दर्य	-10.1225
▁आयात	-10.1225
▁अगस्त	-10.1227
▁अंदाज	-10.1231
▁इनकम	-10.1234
फ्त	-10.1239
▁खेतों	-10.124
▁जुलाई	-10.1248
▁श्वेत	-10.1252
▁2008	-10.1259
▁मांस	-10.1262
षित	-10.1269
▁मजदूर	-10.127
▁रूपये	-10.1283
दोनों	-10.1284
▁जगत	-10.1298
अपना	-10.1305
▁चलती	-10.1316
निर्	-10.1316
▁मुसलमानों	-10.1322
▁बनते	-10.135
नंद	-10.1364
▁असल	-10.1371
▁रहेगी	-10.1373
▁गद्दाफ़ी	-10.1388
▁श्रेणी	-10.1388
▁रणनीति	-10.1388
▁उलझ	-10.1388
▁दृष्टिकोण	-10.1388
▁लवण	-10.1388
वर्षीय	-10.1388
▁पुराना	-10.1388
▁नेहरू	-10.1388
▁अतीत	-10.1389
▁पैमाने	-10.1389
▁समाधान	-10.1389
▁प्रश्नावली	-10.1389
▁स्वतन्त्र	-10.1389
▁तत्कालीन	-10.1389
▁बोतल	-10.1389
▁स्वर्ण	-10.1392
थो	-10.1392
▁शोथ	-10.1394
▁देखे	-10.1397
▁मृत	-10.1398
▁अन्तर्गत	-10.14
▁अर्थात्	-10.1402
▁हक	-10.1403
▁सन	-10.1428
शाला	-10.1428
कर्ता	-10.1428
▁कार्बन	-10.1429
▁बरना	-10.1436
▁चेतना	-10.1437
▁धर	-10.1445
▁तिल	-10.1451
तब	-10.1455
क्रिया	-10.1459
11	-10.1464
जाते	-10.1464
एवं	-10.1465
▁सास	-10.1466
▁फरवरी	-10.1468
स्था	-10.1472
▁हाउस	-10.1472
निधि	-10.1473
गुण	-10.1475
ंगल	-10.1475
ाधिकार	-10.1477
ोगे	-10.149
▁दशक	-10.1494
फै	-10.1496
▁पौ	-10.15
छ्	-10.153
▁अमर	-10.1536
टिक	-10.1538
मंत्रालय	-10.1539
सान	-10.1556
विधि	-10.1557
▁छू	-10.1563
▁सहन	-10.1563
▁बारह	-10.1565
10	-10.1567
▁रेलवे	-10.1571
▁तैनात	-10.1573
▁हिन्दू	-10.1573
▁कच्चे	-10.1573
▁चिन्ता	-10.1573
▁नाटक	-10.1574
▁नवीन	-10.1577
▁अनुकूल	-10.1578
▁बोझ	-10.1579
▁लागत	-10.1587
▁मारा	-10.159
▁बांट	-10.159
▁प्रेरणा	-10.1595
फर	-10.1595
हरे	-10.1597
कृति	-10.1597
बीच	-10.1601
▁घटनाओं	-10.1607
घात	-10.1609
▁चक्र	-10.1612
▁चीख	-10.1618
▁बहस	-10.1641
▁निग	-10.1642
▁धातु	-10.1644
ट्टी	-10.1647
परिषद	-10.1653
▁पड़ते	-10.1655
५०	-10.1657
▁बेल	-10.1657
भूमि	-10.166
▁कार्यों	-10.166
▁जानवरों	-10.166
बारी	-10.1661
मूल्य	-10.1666
उठा	-10.1669
▁कहला	-10.1684
१९	-10.1685
▁कृ	-10.1706
▁मुड़	-10.1708
▁कलाकार	-10.1709
▁रोम	-10.173
िक्र	-10.1747
चीफ	-10.175
▁मंत्र	-10.1757
19	-10.1759
▁बनाते	-10.176
यूनिवर्सिटी	-10.1762
▁उर्वरक	-10.1762
▁खाता	-10.1762
▁सबूत	-10.1762
▁ढेर	-10.1762
▁प्रतिष्ठा	-10.1762
▁अकेला	-10.1762
▁ज़मीन	-10.1763
▁बिलकुल	-10.1763
▁हनीफ	-10.1763
▁झेल	-10.1763
▁रबड़	-10.1763
▁चिड़िया	-10.1764
▁फूट	-10.1764
▁ठिकान	-10.1764
▁फलों	-10.1766
▁सक	-10.1768
▁१४	-10.1769
बिया	-10.1772
▁कैमर	-10.1775
▁सरदार	-10.1775
▁रासायनिक	-10.1775
▁कफ	-10.1777
सर्व	-10.1778
क्षा	-10.1778
▁सूरज	-10.178
▁फेर	-10.1788
▁कन्या	-10.179
▁सार	-10.1792
▁रोशनी	-10.1793
▁साम्राज्य	-10.1796
ंश	-10.1796
▁छीन	-10.1799
▁2009	-10.1819
▁हटाने	-10.182
▁मूर्ति	-10.1825
प्रकार	-10.183
▁आदर	-10.1831
▁चाहा	-10.1838
्रे	-10.1839
▁सबके	-10.1839
▁चौथ	-10.184
▁भागों	-10.1842
▁तने	-10.1857
▁आपस	-10.1857
▁पाती	-10.1865
दशक	-10.1867
धू	-10.1868
▁26	-10.1869
बदल	-10.1872
▁जानी	-10.1872
▁माफ	-10.1874
उसका	-10.1879
▁चट	-10.1892
र्प	-10.1899
▁जमाने	-10.1905
इए	-10.1931
▁पर्वत	-10.1939
▁रहें	-10.1939
▁संगठनों	-10.1949
▁आत्महत्या	-10.1954
▁कंपनियां	-10.1954
▁मुलाकात	-10.1954
▁रिश्वत	-10.1954
▁लाहौर	-10.1954
▁संतोखी	-10.1954
▁क्रमशः	-10.1954
▁विवरण	-10.1954
▁वनस्पति	-10.1954
▁कॉमनवेल्थगेम्स	-10.1954
▁यूरोपीयसंघ	-10.1954
▁राधेलाल	-10.1955
▁उत्पत्ति	-10.1955
▁चैनल	-10.1955
▁परंतु	-10.1955
▁ऑफिस	-10.1955
▁राजनैतिक	-10.1955
▁199	-10.1955
▁स्वभाव	-10.1956
▁साढ़े	-10.1957
▁उलट	-10.1958
▁द्रव्य	-10.1958
घा	-10.1958
▁संजू	-10.1959
▁रहस्य	-10.1962
▁नमक	-10.1964
▁अंध	-10.1968
▁सीधा	-10.1971
▁छाती	-10.1974
▁चरित्र	-10.1975
▁रहेंगे	-10.1978
▁ऊंचाई	-10.1978
▁मौके	-10.1982
▁लक्ष्मी	-10.1985
▁प्रिय	-10.1987
गेट	-10.1997
▁बदन	-10.1997
जाना	-10.2
▁दंग	-10.2009
▁मेल	-10.2019
▁गली	-10.2022
▁चलाने	-10.2025
▁हिम	-10.2032
राष्ट्र	-10.2035
विज्ञान	-10.2045
मंडल	-10.2057
िफ्ट	-10.2059
ाइयों	-10.2059
▁उग	-10.2075
श्त	-10.2087
▁जिला	-10.2088
▁घंटे	-10.2089
▁चोर	-10.209
▁अफ	-10.2091
▁बुद्ध	-10.2099
▁हरी	-10.2106
▁अज	-10.2107
कलन	-10.2108
▁सालों	-10.2121
▁फि	-10.2122
लिए	-10.2149
▁अवैध	-10.215
▁इंतजार	-10.215
▁टिप्पणी	-10.215
▁दिक्कत	-10.215
▁मनमोहनसिंह	-10.215
▁मुहम्मद	-10.215
▁सैकड़ों	-10.215
▁ग्रीस	-10.215
▁दुःख	-10.215
▁स्थायी	-10.215
▁लादेन	-10.215
▁अफ़ग़ानिस्तान	-10.215
▁बिगड़	-10.215
▁समीक्षा	-10.215
▁अभ्यास	-10.2151
▁इंडियन	-10.2151
▁छिड़काव	-10.2151
▁हरकत	-10.2151
▁वित्तमंत्री	-10.2151
▁बराक	-10.2152
▁चिल्ला	-10.2157
▁उड़ा	-10.2157
▁कार्यालय	-10.2161
▁महिलाएं	-10.2167
▁नोट	-10.2171
▁नैतिक	-10.2188
र्ग	-10.2189
▁चावल	-10.2191
▁चौधरी	-10.2195
▁हफ्ते	-10.2199
▁रज	-10.2201
▁चिप	-10.2215
घट	-10.2216
▁गुणों	-10.2231
▁मानने	-10.2238
अरब	-10.2245
ऑफ	-10.2246
लेख	-10.2248
चित्र	-10.2249
▁देनी	-10.2252
▁जाल	-10.2256
▁लौटने	-10.2256
▁यों	-10.2274
गयी	-10.2274
▁भेजे	-10.228
▁खे	-10.2284
▁सिखा	-10.229
करता	-10.2299
▁24	-10.2303
विध	-10.2307
▁पाप	-10.2318
▁तकनीकी	-10.2319
▁लगाई	-10.2333
▁तरा	-10.2345
▁धारण	-10.2349
▁विवेचन	-10.235
▁कटौती	-10.235
▁कठोर	-10.235
▁ईसाई	-10.235
▁सम्राट	-10.235
▁क्षति	-10.235
▁पचास	-10.2351
▁रेडियो	-10.2351
चूंकि	-10.2352
▁सम्पूर्ण	-10.2353
▁सहारा	-10.2353
▁ख़ास	-10.2356
ऊंगा	-10.2358
▁27	-10.2359
द्दा	-10.2361
▁केन्द्रीय	-10.2362
मिला	-10.2364
▁आतंकवादियों	-10.2367
▁बेगम	-10.2369
▁घंट	-10.2372
येगा	-10.2372
▁वृक्क	-10.2374
▁पावर	-10.2374
▁फाइनल	-10.2375
▁ब्ल	-10.2376
▁आंकड़ों	-10.2382
▁निर्मित	-10.2383
▁उठती	-10.2384
▁दिखाया	-10.2387
▁निशाना	-10.2393
सौ	-10.2403
स्थिति	-10.2404
▁वोट	-10.2405
शय	-10.2415
▁आइ	-10.2426
संघ	-10.2441
पहुंच	-10.2446
50	-10.2458
▁पिला	-10.2459
हुई	-10.2462
▁घन	-10.2471
▁सर्वे	-10.2472
निष्ठ	-10.2473
▁खुली	-10.2475
आदि	-10.2476
▁प्रजा	-10.2481
रखा	-10.2481
जाय	-10.2484
ाऊ	-10.2508
▁मानता	-10.2514
रीज	-10.2518
एच	-10.2529
▁उल्	-10.2532
▁क़दम	-10.2554
▁फ्लैट	-10.2554
▁भाजपा	-10.2554
▁स्त्रियों	-10.2554
▁दूसरों	-10.2554
▁शानदार	-10.2554
▁पीड़ित	-10.2554
▁सम्पन्न	-10.2555
▁वर्ल्ड	-10.2555
▁रोमा	-10.2556
▁घिर	-10.2557
▁झलक	-10.2558
▁वस्तुतः	-10.2558
▁घोल	-10.2558
पाट	-10.256
▁भेंट	-10.256
▁नहींहै	-10.2565
▁शरण	-10.2565
▁अल्प	-10.2567
▁अनिवार्य	-10.2569
ात्मा	-10.2569
▁बॉल	-10.257
▁लगाना	-10.2572
▁संस्थाओं	-10.2576
▁गेम्स	-10.2587
▁देह	-10.2597
▁पुरूष	-10.2599
▁मंच	-10.2628
छि	-10.2629
▁लिखे	-10.2637
▁ट्रक	-10.2643
चू	-10.2646
आयुर्वेद	-10.2654
पीछे	-10.2654
वस्तु	-10.2655
अर्थ	-10.2655
घंटे	-10.2668
▁फर	-10.2674
जन्य	-10.2681
स्थल	-10.2686
▁पहाड़	-10.2691
पक्ष	-10.2694
ावत	-10.2703
▁गण	-10.2711
▁बग	-10.2717
जाति	-10.2719
पथ	-10.2735
▁उपकरणों	-10.2737
िंदा	-10.2738
▁पहुंची	-10.2741
▁दायरे	-10.2747
▁लाकर	-10.275
▁साथही	-10.2754
▁इत्यादि	-10.2763
▁निष्कर्ष	-10.2763
▁विष्णु	-10.2763
▁सिलसिले	-10.2763
▁स्पेक्ट्रम	-10.2763
▁एजेंसिय	-10.2763
▁हिम्मत	-10.2763
▁ईंधन	-10.2763
▁प्रार्थना	-10.2763
▁कनाडा	-10.2763
▁सर्कस	-10.2763
▁वार्ता	-10.2763
िरासत	-10.2763
▁खालिद	-10.2763
शिप	-10.2763
▁असफल	-10.2764
▁मानवाधिकार	-10.2764
▁दब	-10.2765
▁लोकतंत्र	-10.2766
▁ऊपरी	-10.2769
▁एशियाई	-10.2773
▁सांस	-10.2774
▁छोड़ने	-10.2777
लिस	-10.2778
▁बढ़ी	-10.278
क्षण	-10.278
पानी	-10.2792
▁शव	-10.2795
▁जातियों	-10.2796
▁अन्न	-10.28
▁आखिरी	-10.2803
▁दिव्य	-10.2808
▁वाह	-10.2809
▁प्राप्ति	-10.2809
▁होतीहै	-10.2823
▁विधान	-10.2825
▁गिन	-10.2828
▁भाग्य	-10.2833
▁मास	-10.2841
▁मज	-10.2845
▁70	-10.2845
▁दोबार	-10.2846
▁कमाई	-10.2854
भ्र	-10.2857
रत्न	-10.2857
▁लिखी	-10.2858
▁बोलने	-10.2865
▁तत्	-10.2865
शर्मा	-10.2867
विश्वास	-10.2867
निर्माण	-10.2867
▁हरे	-10.2893
▁गांवों	-10.2895
▁दया	-10.29
▁झुका	-10.2913
▁मधुर	-10.2917
वाद्य	-10.2918
सालों	-10.2919
अल्	-10.2922
चाल	-10.2927
▁उठाए	-10.2929
▁मैने	-10.2936
ट्यू	-10.2941
डल	-10.2941
बत	-10.2943
▁सोना	-10.2945
▁ठहरा	-10.2947
ढ़े	-10.2947
तलब	-10.2966
▁इंका	-10.2971
साम्प्रदायिक	-10.2975
▁अहसास	-10.2975
▁उपभोक्ता	-10.2975
▁खतरनाक	-10.2975
▁ग़रीब	-10.2975
▁जस्टिस	-10.2975
▁दृढ़	-10.2975
▁फुकुशिमा	-10.2975
▁मैथिली	-10.2975
▁सब्सिड	-10.2975
▁आरंभ	-10.2975
▁बाज़ार	-10.2975
▁अध्याय	-10.2975
▁पुष्प	-10.2975
▁साउथअफ्रीका	-10.2975
▁उतनी	-10.2975
▁खतरे	-10.2975
▁भरोसा	-10.2976
▁सहारे	-10.2976
▁टाटा	-10.2976
▁११	-10.2976
▁वैश्व	-10.2976
▁यौन	-10.2976
▁रवैय	-10.2976
▁गार्ड	-10.2976
▁लोकप्रिय	-10.2977
▁संरक्षण	-10.2977
▁विचारधारा	-10.2977
▁तेरे	-10.2978
▁लम्बा	-10.2978
▁दालों	-10.2979
▁जॉ	-10.2991
ाबाद	-10.2997
▁आनन्द	-10.3008
▁परिस्थिति	-10.3012
▁निवास	-10.3023
▁परिचित	-10.3046
खेल	-10.3046
▁बगल	-10.3047
▁लाइन	-10.307
अनु	-10.3072
▁संपत्ति	-10.3074
शंकर	-10.3085
भोग	-10.3086
प्रभाव	-10.3087
प्रयोग	-10.3093
वर्ण	-10.3093
गण	-10.3094
▁बीमार	-10.3111
▁पहुंचाने	-10.3114
▁आँख	-10.3119
▁बक	-10.3123
पुत्र	-10.3125
▁रै	-10.3129
▁काबू	-10.3135
▁केसाथ	-10.3138
न्ड	-10.3139
हाथ	-10.3147
▁उपस्थित	-10.3151
वासियों	-10.3154
▁१६	-10.3172
▁सच्च	-10.3174
▁तस्वीर	-10.3183
नीति	-10.3188
▁कार्यकर्ता	-10.3189
क्षेप	-10.319
▁क़रीब	-10.3193
▁गान्धी	-10.3193
▁चिट्ठी	-10.3193
▁प्रतीक्षा	-10.3193
▁जासूस	-10.3193
▁मिसाइल	-10.3193
▁लंबा	-10.3193
▁प्रकोप	-10.3193
▁छुट्टी	-10.3193
▁सुनिश्चित	-10.3194
▁अक्षर	-10.3195
िग	-10.3196
▁क्लास	-10.3196
▁क्रूर	-10.3196
▁पीढ़ी	-10.3197
आईसीसी	-10.3198
▁सफाई	-10.3198
▁सकेंगे	-10.3199
▁सरोज	-10.3199
▁चौंक	-10.32
▁मुगल	-10.3201
▁चाचा	-10.3201
▁अपमान	-10.3201
▁राज्यपाल	-10.3203
▁जैन	-10.3206
▁बाढ़	-10.3211
▁टुकड़े	-10.3216
मैंने	-10.3217
▁जिम्	-10.3219
▁लेंगे	-10.3219
▁आधे	-10.322
▁दंड	-10.3226
▁हिला	-10.3228
▁मनोविज्ञान	-10.3228
▁बीपी	-10.323
▁भारतीयों	-10.3231
▁नैशनल	-10.3233
▁नारे	-10.3234
▁कैसी	-10.3235
▁पंज	-10.3237
▁व्रत	-10.3238
▁पुल	-10.324
पार्क	-10.3245
जय	-10.3247
▁कथा	-10.3251
▁प्रसाद	-10.326
▁चलकर	-10.3262
▁खि	-10.3266
▁मुबारक	-10.3272
▁विशेषज्ञों	-10.3291
डो	-10.3295
सर्ग	-10.3297
ऑ	-10.3297
▁लौटा	-10.3298
थल	-10.3312
उधर	-10.3313
--"	-10.3319
पांच	-10.3328
▁खुलास	-10.333
चक्र	-10.3333
म्भ	-10.3336
सेक्स	-10.3339
▁महाराज	-10.334
मित्र	-10.334
शिया	-10.3341
इश	-10.3342
▁21	-10.3343
मेरी	-10.3362
▁५०	-10.3363
▁पहने	-10.3379
▁गुना	-10.3381
▁लीग	-10.3386
प्रो	-10.339
▁दोषी	-10.3393
मोह	-10.3397
कल्प	-10.3397
रूम	-10.3401
▁तन	-10.3403
▁धू	-10.3406
▁22	-10.3409
मई	-10.341
र्श	-10.3411
▁अँधेर	-10.3415
▁गोपनीय	-10.3415
▁सिंचाई	-10.3415
▁क्षत्रिय	-10.3415
▁तुरन्त	-10.3415
▁स्रोत	-10.3415
▁खनिज	-10.3415
▁राक्षस	-10.3415
▁बाँध	-10.3415
▁भयंकर	-10.3415
▁ढूंढ	-10.3416
▁शिक्षक	-10.3416
▁छेड़	-10.3418
▁कराची	-10.3418
▁28	-10.3424
▁ज़रूरत	-10.3428
▁दावे	-10.3428
▁बोध	-10.343
▁हॉकी	-10.3431
▁आवाज़	-10.3432
▁बुआ	-10.3434
▁प्रेस	-10.3434
▁कलकत्ता	-10.3435
▁ः	-10.3435
▁इट	-10.344
▁कुशल	-10.3441
▁आग्रह	-10.3442
▁प्रतिदिन	-10.3442
अली	-10.3443
▁चिन्ह	-10.3443
▁दोहरा	-10.3444
▁गोविंदन	-10.3446
▁ढील	-10.3446
संगत	-10.3449
वर्ती	-10.345
▁इसको	-10.345
▁डेविस	-10.3456
▁एंड	-10.3461
▁केरल	-10.3463
वत्	-10.3463
▁एकत्र	-10.3466
▁तप	-10.3467
▁दिसंबर	-10.3483
▁सोचते	-10.3487
▁मधु	-10.3488
▁घु	-10.3491
▁देगी	-10.3495
▁अरे	-10.3515
गुना	-10.3516
▁बोर्ड	-10.3528
▁फट	-10.353
विश्वविद्यालय	-10.3533
अप्रैल	-10.3533
अच्छा	-10.3534
बोर्ड	-10.3537
टेन	-10.3538
▁बिता	-10.3538
▁मंडल	-10.3543
▁लेप	-10.3543
▁दलों	-10.355
▁हैकि	-10.3551
?'	-10.3566
▁महज	-10.3571
छो	-10.3584
▁सैल	-10.3592
▁अफसरों	-10.3595
▁पीट	-10.3607
▁सद	-10.3607
▁छोड़ा	-10.3621
▁समझे	-10.3623
▁पहल	-10.363
▁अध्यापक	-10.3642
▁इंजीनियर	-10.3642
▁इस्तीफा	-10.3642
▁लखनऊ	-10.3642
▁साजिश	-10.3642
▁बगैर	-10.3642
▁तृप्ति	-10.3642
▁कालिदास	-10.3642
▁ख्याल	-10.3642
▁मुहैया	-10.3642
▁परंपरा	-10.3643
▁भर्ती	-10.3643
▁सर्वप्रथम	-10.3643
▁अत्यंत	-10.3643
▁बूढ़ी	-10.3643
▁विकिरण	-10.3643
▁अंतर्गत	-10.3643
▁आंगन	-10.3644
▁तत्त्व	-10.3644
▁खारिज	-10.3644
हजाररुपये	-10.3645
▁बिजलीघर	-10.3645
▁अनुरोध	-10.3645
▁इंद्र	-10.3646
▁कथन	-10.3647
हाइड्र	-10.3648
▁कायम	-10.365
ज़े	-10.365
▁रिश्तेदार	-10.3652
▁आचरण	-10.3654
▁शीश	-10.3658
▁सिरे	-10.3658
▁बढ	-10.3661
▁कल्याण	-10.3664
▁गुस्से	-10.3664
▁पिछड़े	-10.3666
देखा	-10.3668
ड़िया	-10.368
▁गायब	-10.3685
▁लगेगा	-10.3691
▁सर्ज	-10.3699
नुसार	-10.3707
▁चन्द्र	-10.3712
▁तेज़ी	-10.3714
▁जानती	-10.3722
चंद्र	-10.3724
▁टि	-10.3726
▁लिंग	-10.3732
वैज्ञानिक	-10.3737
▁निकलते	-10.3743
▁डिस्	-10.3751
▁देखती	-10.3754
प्राप्त	-10.3756
▁सस्त	-10.3761
मेल	-10.3761
गुप्त	-10.3765
▁शोर	-10.377
विकास	-10.3771
▁फ्रे	-10.3772
▁जू	-10.3778
▁मुद्द	-10.3788
▁हज़ार	-10.3802
▁सुन्दरी	-10.3816
▁सीता	-10.3827
▁निकलता	-10.3851
▁ट्रे	-10.3856
सिस	-10.3857
▁बैर	-10.3861
ंजा	-10.3867
न्हीं	-10.387
▁ढो	-10.3872
शस्त्र	-10.3873
▁पुरस्कार	-10.3875
▁संदिग्ध	-10.3875
▁सिलसिला	-10.3875
▁थोड़े	-10.3875
▁फूफा	-10.3875
▁उड़ीसा	-10.3875
▁गन्ने	-10.3875
▁आश्रम	-10.3875
▁अफीम	-10.3875
▁टॉ	-10.3875
▁अशोक	-10.3875
▁क्षय	-10.3876
▁जितने	-10.3876
▁बिस्तर	-10.3877
▁अम्मा	-10.3877
▁उत्तरप्रदेश	-10.3877
▁सीआईए	-10.3877
▁संयोग	-10.3883
▁राजकुमार	-10.3885
▁जायेंगे	-10.3889
▁सूक्ष्म	-10.3892
गिलानी	-10.3896
पन्न	-10.3897
▁कमिटी	-10.3897
▁पात्र	-10.3898
▁कद	-10.3899
▁विश्वकप	-10.39
-(	-10.39
▁सें	-10.3903
देवी	-10.3911
▁पॉलि	-10.3912
सक	-10.3917
▁ड्राइवर	-10.393
▁फर्क	-10.3932
▁मध्यम	-10.3933
▁कोमल	-10.3937
▁समर्थ	-10.3941
▁द्वि	-10.3942
स्वरुप	-10.3952
▁पुरुषों	-10.3954
▁खिल	-10.3958
▁पहाड़ी	-10.3959
▁पकड़कर	-10.3966
▁कूद	-10.3976
▁स्वामी	-10.3985
▁जुड़	-10.3985
▁शै	-10.3997
वश	-10.3998
समूह	-10.4004
लेकिन	-10.4005
▁फंस	-10.4008
युद्ध	-10.4008
▁पश्चात	-10.4012
भेद	-10.4025
पहले	-10.4027
▁गुड़	-10.4031
▁मचा	-10.4038
कहते	-10.4042
उनके	-10.4048
▁हाय	-10.4051
▁उपयोगी	-10.4058
सोच	-10.4061
नाशक	-10.4062
▁लगीं	-10.4066
बंध	-10.4066
वृत	-10.4068
▁खाकर	-10.4073
ूर्त	-10.4074
▁उन्	-10.4077
▁मोटर	-10.4081
बस	-10.4092
▁बौद्ध	-10.4104
▁उठाने	-10.4107
ञ	-10.411
▁टेक	-10.4112
▁अफ्रीकी	-10.4113
▁गद्दाफी	-10.4113
▁ड्यूटी	-10.4113
▁पिछली	-10.4113
▁मस्जिद	-10.4113
▁समारोह	-10.4113
▁ज्यों	-10.4114
▁स्नेह	-10.4114
▁पप्पू	-10.4115
▁जूझ	-10.4115
▁एकाएक	-10.4116
▁टकरा	-10.4116
▁उपग्रह	-10.4117
▁बिठा	-10.4117
▁दूंगा	-10.4117
▁सल्फा	-10.4117
▁हुये	-10.412
▁पागल	-10.4122
▁दिखायी	-10.4123
▁गलती	-10.4123
▁गर्व	-10.4124
हीरासिंह	-10.4125
▁लगाये	-10.4125
िकाओं	-10.4126
▁भ्रम	-10.4128
▁इनसे	-10.4131
▁मिलना	-10.4132
▁आसमान	-10.4132
▁बैरम	-10.4135
▁बोलाः	-10.4138
▁प्रेरित	-10.4141
▁छः	-10.4141
▁घुमा	-10.4141
लाखरुपये	-10.4143
▁वरना	-10.4147
▁वेदना	-10.4148
▁ताप	-10.4152
▁माह	-10.4153
जाए	-10.4156
दाद	-10.4157
गामी	-10.4161
गन्ध	-10.4163
▁छाल	-10.4163
▁गलबा	-10.4165
▁मुद्दा	-10.4173
▁टीका	-10.4178
२०	-10.4184
▁समूहों	-10.4186
जुल	-10.4187
▁पाकर	-10.4192
तरफ	-10.4202
▁ग्राहकों	-10.4202
▁2011	-10.4204
पड़े	-10.4206
▁कैच	-10.4218
▁राह	-10.4219
पंथ	-10.423
▁भेजने	-10.4233
▁मानी	-10.4234
स्वामी	-10.4248
रेशन	-10.4248
आउट	-10.4248
सम्बन्ध	-10.4249
आम	-10.4257
पित्त	-10.426
८५	-10.427
उसकी	-10.427
ुरी	-10.428
▁जर्मन	-10.4283
ाचार्य	-10.4283
▁बाजारों	-10.4284
ैट	-10.4286
▁कार्ड	-10.429
▁पत्रकार	-10.4298
होगा	-10.4306
▁चर्च	-10.4317
व्याप	-10.432
▁तेज़	-10.4325
▁धूल	-10.4332
ॉक	-10.4339
--------------	-10.4345
▁छाप	-10.4348
▁ब्रह्मा	-10.4351
▁आकर्षण	-10.4357
▁दिलचस्प	-10.4357
▁मशहूर	-10.4357
▁व्यावसायिक	-10.4357
▁जम्मू	-10.4357
▁दूतावास	-10.4357
▁नजदीक	-10.4357
▁राजदूत	-10.4357
▁दफ्तर	-10.4357
▁गर्दन	-10.4357
▁बाह्य	-10.4357
▁तारीख	-10.4357
▁भुगतान	-10.4357
▁हाईकोर्ट	-10.4358
▁श्याम	-10.4359
▁बतला	-10.436
▁अधीन	-10.436
▁भड़क	-10.436
▁ख़बर	-10.436
▁प्रशांत	-10.4362
▁चेयरम	-10.4362
▁35	-10.4363
८०	-10.4363
▁दांत	-10.4366
▁औद्योगिक	-10.4374
▁सौदा	-10.4375
▁बैट	-10.4383
▁मोटा	-10.4383
▁किस्मों	-10.4384
▁पड़ेगी	-10.4385
पूर	-10.4387
▁अद	-10.4396
▁संधि	-10.442
ोत्तर	-10.4421
▁सम्बन्धित	-10.4425
▁कन	-10.443
▁तादा	-10.443
ंटन	-10.4438
▁डाले	-10.444
▁पकड़ा	-10.4446
▁पाठक	-10.4452
न्यास	-10.4469
छु	-10.4472
▁विदेशों	-10.4481
▁लय	-10.4481
▁राग	-10.4482
चो	-10.4485
▁टू	-10.4488
▁जिले	-10.4488
▁रहकर	-10.449
▁गला	-10.4491
फरवरी	-10.4498
2010	-10.4499
कौन	-10.45
छोटी	-10.4501
छी	-10.4502
▁भो	-10.4503
▁न्यू	-10.4507
रूढ़	-10.4521
इंडिया	-10.4526
12	-10.4531
▁डालने	-10.4536
▁दूँ	-10.4539
▁बचत	-10.4541
मोनियम	-10.4542
तुर	-10.4549
▁साधनों	-10.4549
▁प्राणी	-10.455
▁31	-10.4552
▁निशान	-10.4556
व्	-10.4557
▁प्रजाति	-10.4564
न्द्र	-10.4568
▁२१	-10.4571
▁शीत	-10.4582
15	-10.4584
▁बनाता	-10.4597
▁अयोध्या	-10.4607
▁इंतजाम	-10.4607
▁कंप्यूटर	-10.4607
▁मुकदमा	-10.4607
▁संदर्भ	-10.4607
▁सन्दर्भ	-10.4607
▁न्यूजीलैंड	-10.4607
▁मामूली	-10.4607
▁कोशिकाओं	-10.4607
▁गठन	-10.4607
नवंबर	-10.4607
▁लायक	-10.4608
▁क्षार	-10.4609
▁खैर	-10.461
▁संतान	-10.4611
▁संशय	-10.4611
▁वनडे	-10.4612
▁तरंग	-10.4613
अभी	-10.4615
पू	-10.4616
▁कार्यकर्ताओं	-10.4619
----------------	-10.4621
▁शे	-10.4623
▁सुरंग	-10.4624
▁रोटी	-10.4625
▁परिवर्तित	-10.4625
▁नाराज	-10.4628
▁आपसे	-10.4634
इसी	-10.4637
▁हेड	-10.4637
▁नियमित	-10.464
▁चलेगा	-10.4645
▁स्मृति	-10.4647
हं	-10.4648
भाई	-10.4657
▁चलो	-10.4659
▁नियुक्ति	-10.4662
किशोर	-10.4668
▁सोनी	-10.467
▁सावधानी	-10.4681
▁मच	-10.4686
७१	-10.4695
▁ताक	-10.4718
▁हितों	-10.4722
▁पट्ट	-10.4726
2007	-10.4732
ोनी	-10.4734
▁शंकर	-10.4735
▁कैद	-10.4737
▁पलट	-10.4737
नियम	-10.474
▁तबले	-10.4744
▁कमर	-10.4744
फोन	-10.4749
▁खट	-10.4751
द्वीप	-10.4753
जनवरी	-10.4755
जगह	-10.4759
शुद्ध	-10.4759
सामान्य	-10.476
धातु	-10.4762
▁ग्राहक	-10.4768
िक्क	-10.4769
ऐसा	-10.477
▁अंकल	-10.4785
▁पोल	-10.479
ंजर	-10.4802
शांत	-10.4802
▁पक्षी	-10.4804
▁कारक	-10.4808
▁लिहाज	-10.481
सकता	-10.4813
किस	-10.4817
▁एक्ट	-10.482
▁प्रवाह	-10.4828
▁भोग	-10.4831
ायेंगे	-10.4835
▁अन्तर्	-10.4851
वंत	-10.4852
▁ज़रूर	-10.4852
सितंबर	-10.4863
▁इंदुलेखा	-10.4863
▁गम्भीर	-10.4863
▁गिरफ़्तार	-10.4863
▁दुर्भाग्य	-10.4863
▁रफ्तार	-10.4863
▁रिलायंस	-10.4863
▁विज्ञापन	-10.4863
▁सूचकांक	-10.4863
▁वाटसन	-10.4863
▁मछली	-10.4863
▁लघु	-10.4863
▁आमदनी	-10.4863
▁तरीका	-10.4863
▁मेहनत	-10.4863
▁ज्वर	-10.4863
▁दक्षिणअफ़्रीका	-10.4864
वक्त	-10.4864
▁बूढ़ा	-10.4864
▁अन्तिम	-10.4867
▁ग्रे	-10.487
विलेय	-10.487
▁निगाह	-10.487
▁रिश्ते	-10.4872
▁हमलावर	-10.4872
▁यूरोपीय	-10.4874
▁हादस	-10.4875
ाक्षर	-10.4885
▁नलिका	-10.4887
▁वस्तुओं	-10.4888
▁पूछे	-10.4888
▁आनंद	-10.489
्नर	-10.4891
▁जुड़ा	-10.4891
▁मुक्ति	-10.4892
फॉर्म	-10.4901
ॉर्न	-10.4902
▁थम	-10.4906
▁पैरों	-10.4912
▁45	-10.4913
▁शैली	-10.4917
चीन	-10.492
देना	-10.492
▁मॉ	-10.4921
▁वमन	-10.4921
▁प्रांत	-10.4922
डू	-10.4922
ओँ	-10.4922
▁इसप्रकार	-10.4923
▁फिल्मों	-10.4925
▁बाहरी	-10.4927
ंगुल	-10.4928
▁पड़ोसी	-10.4931
पाठ	-10.4931
▁बजाने	-10.4938
▁स्टेडियम	-10.4942
फील्ड	-10.4943
मंत्र	-10.4946
र्ति	-10.4951
▁किलो	-10.4967
▁बेकार	-10.4968
पेट	-10.4969
घाट	-10.4972
▁जिनसे	-10.4975
13	-10.4978
ष्य	-10.4985
▁रोका	-10.4986
सर्वनाम	-10.4988
▁विश्वविद्यालय	-10.4988
रिज	-10.4989
▁१७	-10.5012
▁दिखाने	-10.5014
त्ते	-10.5025
मुक्त	-10.5026
इयों	-10.5027
▁मोड़	-10.503
▁बदला	-10.5031
▁परिवारों	-10.5037
▁तंग	-10.5048
▁हिल	-10.505
▁६०	-10.5052
▁आतंक	-10.5052
▁४०	-10.5056
ंतर	-10.5056
▁मानकर	-10.5058
▁सम्बन्धी	-10.5071
कहकर	-10.5088
ठीक	-10.509
ट्रि	-10.5107
बेल	-10.5112
गए	-10.5122
डब्ल्यू	-10.5125
▁कृपा	-10.5126
इज्जत	-10.5126
▁इंटरव्यू	-10.5126
▁तमिलनाडु	-10.5126
▁त्रिपोली	-10.5126
▁दुश्मन	-10.5126
▁हिन्दुस्तान	-10.5126
▁फोटो	-10.5126
▁शून्य	-10.5126
▁शख्स	-10.5126
▁छुड़ा	-10.5126
▁धमाके	-10.5126
▁ब्लास्ट	-10.5126
▁पांडव	-10.5127
▁धीमी	-10.5127
▁उछल	-10.5127
यन्त्र	-10.5127
▁विद्यालय	-10.5127
▁पांव	-10.5127
▁अलकायदा	-10.5127
▁तैर	-10.5127
▁खासतौर	-10.5128
▁कीजिए	-10.5128
▁अभिव्यक्ति	-10.5128
▁शौक	-10.5129
▁प्रतिनिधि	-10.5129
▁धोखा	-10.5131
▁भरपूर	-10.5131
▁छुप	-10.5131
▁गहरे	-10.5132
▁फँस	-10.5133
▁व्यस्त	-10.5134
ूंगी	-10.5137
▁पतालगा	-10.514
▁उग्र	-10.5141
अरे	-10.5141
▁विफल	-10.5141
▁गंध	-10.5144
इला	-10.5144
▁संशोधन	-10.5146
▁बनवा	-10.5148
▁विद्युत	-10.5148
▁सूरजमल	-10.5152
▁पायी	-10.5161
▁पर्यट	-10.5162
▁मुताबिक़	-10.5167
इसके	-10.5173
फोड़	-10.5176
जोर	-10.5177
▁परदे	-10.518
दय	-10.5182
▁सम्पत्ति	-10.5184
▁अगल	-10.519
▁आकृति	-10.5194
काउंट	-10.5196
▁आतंकी	-10.5202
▁सत्र	-10.5205
▁कृत	-10.525
200	-10.5255
ुंब	-10.5285
▁प्रकाशक	-10.5286
उन्होंने	-10.5289
शासन	-10.529
▁जानवर	-10.5292
साधारण	-10.5295
काय	-10.5296
▁पूर्ति	-10.5303
४५	-10.5305
▁गढ़	-10.5306
मिश्र	-10.5309
▁डै	-10.5311
तौर	-10.5328
नुमा	-10.5331
मानी	-10.5333
▁पान	-10.5339
▁तद	-10.5345
▁रोड	-10.5346
▁न्यूज	-10.5355
ल्प	-10.5363
अहमद	-10.5365
▁गंद	-10.5376
▁पंख	-10.5384
गद	-10.5391
वृत्त	-10.5392
जरा	-10.5393
▁पाण्डु	-10.5396
▁आईपीएल	-10.5397
▁इकट्ठा	-10.5397
▁ध्रुव	-10.5397
▁राजनयिक	-10.5397
▁लॉन्च	-10.5397
▁वेस्टइंडीज	-10.5397
▁व्यर्थ	-10.5397
▁शताब्दी	-10.5397
▁सिगरेट	-10.5397
▁सिफारिश	-10.5397
▁सुलझा	-10.5397
▁हालाँकि	-10.5397
▁एमसीडी	-10.5397
▁चिंतित	-10.5397
▁नौजवान	-10.5397
▁संबोधित	-10.5397
▁इकाई	-10.5397
न्ड्	-10.5397
▁रवाना	-10.5397
▁निर्माता	-10.5397
गठित	-10.5397
▁अधिग्रह	-10.5397
▁दूकान	-10.5398
▁केशवन	-10.5398
▁अनाज	-10.5398
▁विधवा	-10.5399
▁यूनिट	-10.5399
▁सन्देह	-10.5399
▁ठंडा	-10.54
▁जोड़ी	-10.54
▁मतदाता	-10.54
▁महाभारत	-10.54
▁श्वास	-10.5401
▁उंगल	-10.5403
क्लि	-10.5405
▁साहू	-10.5405
▁नाकाम	-10.5405
मिनी	-10.5408
▁उपदेश	-10.5409
▁प्रसारण	-10.541
▁बलों	-10.541
▁भगत	-10.5414
▁गणना	-10.5414
▁मंत्रियों	-10.5416
▁मिशन	-10.5419
▁बहादुर	-10.5419
▁होंठ	-10.5422
▁अग्र	-10.5424
▁प्रोटीन	-10.5425
१५	-10.5426
▁पृष्ठ	-10.5432
▁लड़ाक	-10.5434
▁बताई	-10.5439
मण्डल	-10.5439
लीक्स	-10.544
▁पाना	-10.5448
▁तबाह	-10.5448
▁प्रतिभा	-10.5456
▁असम	-10.5464
▁लिंगा	-10.5466
▁रिश्तों	-10.5466
एगा	-10.5468
▁दस्त	-10.5475
▁मोटी	-10.5483
▁राजाओं	-10.5493
40	-10.5501
▁स्थितियों	-10.5505
वात	-10.551
▁कलाकारों	-10.5513
▁खेले	-10.5516
७५	-10.5546
▁निकालकर	-10.5546
▁कब्ज	-10.5555
देने	-10.5561
पुरुष	-10.5566
संभव	-10.5566
परिवर्तन	-10.5566
निकल	-10.5568
▁दोस्ती	-10.5568
कहीं	-10.5569
हाउस	-10.5572
मंद	-10.5575
▁निकली	-10.5582
▁चरमपंथ	-10.56
▁मेज	-10.5626
▁वाहन	-10.5631
▁संग	-10.5631
तुल	-10.5646
▁झटक	-10.5663
मणि	-10.5669
▁पह	-10.567
▁निरन्तर	-10.5674
▁प्रोजेक्ट	-10.5674
▁विधेयक	-10.5674
▁साझेदार	-10.5674
▁ह्रदय	-10.5674
▁टैंक	-10.5674
▁ओसामाबिनलादेन	-10.5674
▁पैकेज	-10.5674
▁पसन्द	-10.5675
▁धमकी	-10.5675
▁मुनीम	-10.5675
▁शान्त	-10.5675
▁समीप	-10.5675
▁बूढ़े	-10.5675
▁तलाक	-10.5675
▁स्टील	-10.5675
▁कपड़ों	-10.5675
▁नोटिस	-10.5675
▁अरुण	-10.5675
▁अपेक्षाकृत	-10.5677
रिस	-10.5677
▁संन्यास	-10.5678
▁बिखर	-10.5678
▁गंवा	-10.5679
▁प्रातः	-10.568
▁मुल्क	-10.5681
▁छक्क	-10.5684
▁गवर्नर	-10.5684
एक्स	-10.5684
लाखरुपए	-10.5686
▁मिश्रण	-10.5689
प्रद	-10.569
माने	-10.569
▁उधार	-10.569
▁रखें	-10.5693
▁उपचार	-10.5696
▁उदार	-10.57
▁ग्वायूल	-10.5701
▁लपक	-10.5703
▁मर्द	-10.5703
▁यात्री	-10.5705
▁अभीतक	-10.5708
▁आईटी	-10.5711
मोद	-10.572
▁भंग	-10.5723
▁कृमि	-10.5725
▁बंट	-10.5726
▁विकि	-10.5745
▁पिच	-10.5762
रक्षा	-10.5765
▁सुपर	-10.5769
▁शेख	-10.5776
▁मार्क	-10.5778
▁गरमा	-10.5782
प्स	-10.5795
▁सुनते	-10.5802
गौडा	-10.5807
▁लिखने	-10.5809
▁चिढ़	-10.5811
▁साध	-10.5815
▁१३	-10.5816
गुजार	-10.5818
पुरी	-10.5828
▁सोचकर	-10.5831
तिक	-10.5838
▁मूल्यों	-10.584
आज	-10.5844
७९	-10.5846
▁आफ	-10.585
एजेंसी	-10.5852
कश्मीर	-10.5852
पत्नी	-10.5852
सुरक्षा	-10.5855
▁डालकर	-10.5857
▁सोचता	-10.5863
▁प्ले	-10.5863
पढ़	-10.5869
▁कलम	-10.5871
प्ट	-10.5871
ाहिर	-10.5876
▁छात्रों	-10.5878
छोड़	-10.5879
गई	-10.5882
ैक्स	-10.5889
▁पड़ोस	-10.5891
लाइन	-10.5902
अस	-10.5905
▁समझना	-10.591
७८	-10.5921
रेखा	-10.5924
सत्ता	-10.5929
ानुसार	-10.5929
कवि	-10.5933
30	-10.5935
▁उन्नत	-10.5945
▁गम	-10.5947
▁गयाहै	-10.5948
▁प्रारंभ	-10.5952
▁लोह	-10.5954
अक्टूबर	-10.596
▁आन्दोलन	-10.596
▁इंडस्ट्री	-10.596
▁औपचारिक	-10.596
▁गठबंधन	-10.596
▁टुकड़ा	-10.596
▁दुर्घटना	-10.596
▁पाठ्यक्रम	-10.596
▁प्रदूषण	-10.596
▁मद्देनजर	-10.596
▁नियंत्रित	-10.596
▁पूछताछ	-10.596
▁सांख्य	-10.596
▁इशारा	-10.596
▁गेहूं	-10.596
▁मातृ	-10.596
ुफ़िया	-10.596
▁कर्तव्य	-10.596
▁घोड़े	-10.596
▁चेष्टा	-10.596
▁उत्सुक	-10.596
▁वस्त्र	-10.596
▁अभिनय	-10.596
▁त्वचा	-10.596
ओश्म्	-10.596
▁आवेदन	-10.596
स्मिथ	-10.596
▁स्पर्श	-10.5961
▁ख़र्च	-10.5962
▁देखभाल	-10.5962
▁नकली	-10.5963
▁खिंच	-10.5963
▁वादन	-10.5963
▁फौज	-10.5963
▁स्वार्थ	-10.5963
▁शक्तिशाली	-10.5963
▁ऑटो	-10.5964
▁स्वच्छ	-10.5964
▁संपन्न	-10.5964
▁इराद	-10.5964
▁जाया	-10.5964
▁घृत	-10.5965
▁प्रभावी	-10.5966
▁रद्द	-10.5967
▁बरसात	-10.5967
▁लोकनाथ	-10.5968
▁जिंदा	-10.5968
▁घुटन	-10.5969
▁लोकपाल	-10.5969
▁प्रदर्शनकारी	-10.5969
▁कामकाज	-10.597
▁बाधा	-10.5975
▁ड्रा	-10.5975
▁आचार्य	-10.5978
▁निदान	-10.5978
▁बेंच	-10.5983
▁घोटाला	-10.5983
मेट	-10.5987
▁देखें	-10.5992
▁किस्में	-10.5995
▁प्रबल	-10.5995
▁चंद्रमा	-10.5997
▁आज्ञा	-10.6
▁हिमालय	-10.6002
▁सकेगी	-10.6002
▁कॉलेज	-10.6011
मेगा	-10.6012
▁कब्जा	-10.6016
▁दरबार	-10.6017
▁फिट	-10.6017
▁अनाथ	-10.6018
▁उपस्थिति	-10.6021
▁ताजा	-10.6029
▁सवालों	-10.6034
▁जोड़ा	-10.605
▁निवासी	-10.6061
▁यूं	-10.6066
▁अदा	-10.6069
▁मांती	-10.6076
▁बोलते	-10.6077
इंग	-10.6078
▁पकड़ने	-10.6087
दरी	-10.6088
▁चलाया	-10.6094
▁दौरा	-10.6096
▁शुभ	-10.6101
दोष	-10.6114
नेवाला	-10.6121
▁जापानी	-10.6139
▁चिर	-10.614
2011	-10.6146
अथवा	-10.6146
उत्तर	-10.6147
▁रहित	-10.6151
गृह	-10.6158
प्रदेश	-10.6159
▁प्रतिमा	-10.6162
पेक्ष	-10.6173
आगे	-10.6183
▁खेलों	-10.6187
जिले	-10.6191
▁जाट	-10.6232
बाग	-10.6234
▁ऊंचा	-10.6246
▁पेट्रोल	-10.6254
▁ओसामा	-10.6254
पब्लिक	-10.6254
बाब्वे	-10.6254
▁आकर्षक	-10.6254
▁तात्पर्य	-10.6254
▁तिजऊ	-10.6254
▁लाइसेंस	-10.6254
▁वगैरह	-10.6254
▁सृष्टि	-10.6254
▁खिड़की	-10.6254
▁डेविड	-10.6254
▁नीतीश	-10.6254
▁रत्नसेन	-10.6254
▁उपेक्षा	-10.6254
▁बदमाश	-10.6254
▁सहवाग	-10.6254
▁खूबसूरत	-10.6254
▁जटिल	-10.6254
▁खयाल	-10.6255
▁शिष्य	-10.6255
▁बहुमत	-10.6256
▁१९८०	-10.6256
▁सम्बद्ध	-10.6256
▁रोजगार	-10.6257
▁दक्षिणकोरिया	-10.6257
▁स्वर्ग	-10.626
दाश्त	-10.626
▁तीसरी	-10.626
विष	-10.6262
▁अनुरूप	-10.6263
▁चयन	-10.6266
▁बर्मा	-10.6267
▁कठिनाई	-10.6267
▁फुल	-10.6269
संतुलित	-10.627
▁ढाई	-10.6271
▁उपनिषद	-10.6272
▁बारिश	-10.6276
▁यो	-10.6279
▁दोप्दी	-10.6279
▁चीज़	-10.6283
स्थाई	-10.6283
▁संत	-10.6288
रीदी	-10.6289
▁श्रम	-10.629
असगन्ध	-10.629
मनोवैज्ञानिक	-10.629
▁गड्ढ	-10.6292
▁पौधा	-10.6292
▁कड़े	-10.6293
▁निशाने	-10.6295
▁निराशा	-10.6296
▁लोहे	-10.6297
▁दिव	-10.6297
वृ	-10.6302
▁वेतन	-10.6307
▁अंकित	-10.6316
रोज	-10.6321
▁अकाली	-10.6321
▁अन्यथा	-10.6323
▁उमर	-10.6331
▁रुपया	-10.6337
▁घटा	-10.6339
▁पांचसाल	-10.6342
▁सुनवा	-10.6347
क्ख	-10.6352
▁वर्णों	-10.6355
▁निकलती	-10.6358
वाओं	-10.6358
स्तान	-10.6362
धवन	-10.6372
▁करोड़ों	-10.6391
▁शहरी	-10.6407
▁अपन	-10.6408
▁विद्वानों	-10.6412
▁घी	-10.6418
▁कराए	-10.642
४२	-10.6421
खाने	-10.6422
▁चतुर	-10.6424
▁मजा	-10.6436
लभ	-10.6442
▁नीच	-10.6444
मुबारक	-10.6448
षे	-10.6451
ावली	-10.6452
तत्व	-10.6453
संस्कृति	-10.6454
आते	-10.6458
लियन	-10.6458
▁बन्ध	-10.6462
मार्ग	-10.6466
▁दस्तावेज	-10.6475
▁बनाती	-10.6483
▁पकड़े	-10.6484
▁उदासी	-10.6486
उनकी	-10.6489
शास्त्रीय	-10.649
न्ति	-10.6491
वेयर	-10.6491
लीग	-10.6506
▁80	-10.6506
चन्द	-10.6527
▁मूर्त	-10.6544
▁डीज	-10.6547
▁अश्व	-10.6553
▁द्रव	-10.6556
पाक	-10.6556
▁डायरेक्टर	-10.6557
▁मुस्कुरा	-10.6557
▁आख़िर	-10.6557
▁आनुवंशिक	-10.6557
▁दुर्योधन	-10.6557
▁पारिवारिक	-10.6557
▁बुनियाद	-10.6557
▁सहानुभूति	-10.6557
▁सामूहिक	-10.6557
▁भाँति	-10.6557
▁शशांक	-10.6557
▁शूद्र	-10.6557
▁संतोष	-10.6557
▁ड्रोन	-10.6557
▁पत्तियां	-10.6557
▁रोबॉट	-10.6557
▁लड़कियां	-10.6557
▁स्याही	-10.6557
▁टाइम	-10.6557
▁गणेश	-10.6557
▁सऊदीअरब	-10.6557
▁शिखर	-10.6558
तिहाई	-10.6558
▁हिंसक	-10.6558
▁यकीन	-10.6558
▁क्षमा	-10.6558
▁तत्काल	-10.6558
▁उन्होने	-10.6558
्टन	-10.6558
▁वैश्य	-10.6559
▁नंपूतिरीः	-10.656
▁संगठित	-10.6561
▁प्रभावशाली	-10.6561
▁स्पेन	-10.6561
▁पंक्ति	-10.6562
सीनियर	-10.6564
▁राजेंद्र	-10.6564
▁विश्वनाथ	-10.6565
▁घड़ी	-10.6566
▁चरम	-10.6566
▁निहित	-10.6566
▁फार्म	-10.6566
▁भटक	-10.6567
▁पीछा	-10.6567
▁दाह	-10.6573
▁गहराई	-10.6573
फीयत	-10.6573
▁मोटे	-10.6573
▁ब्राह्मणों	-10.6575
▁दादा	-10.6578
▁धन्वन्तरि	-10.6579
▁बनना	-10.6581
▁आयुर्वेदीय	-10.6581
पड़ी	-10.6581
▁वैजंती	-10.6583
▁वर्मा	-10.6586
▁आओ	-10.6588
▁मन्दिर	-10.6596
हास	-10.661
▁साफ़	-10.6611
▁निरा	-10.6611
▁गहन	-10.6612
▁तीव्रता	-10.6622
▁चुनावों	-10.6648
▁जंग	-10.665
▁करवाने	-10.6658
ंकित	-10.6671
▁लीक	-10.6681
▁२४	-10.6681
खण्ड	-10.6684
▁पूछने	-10.6687
▁पत्रिका	-10.669
▁खोलकर	-10.6695
थक	-10.6698
७७	-10.6703
▁आमतौर	-10.6704
▁समझती	-10.6709
▁आचार	-10.671
▁बाई	-10.6713
फिल	-10.6726
▁नाक	-10.6728
▁एकबार	-10.6733
सभी	-10.674
▁बताता	-10.6744
आवश्यक	-10.6761
स्कूल	-10.6762
सामने	-10.6764
समिति	-10.6769
भारतीय	-10.6772
▁यानि	-10.6778
जहां	-10.6781
कालीन	-10.6789
▁बदलने	-10.6809
▁गुम	-10.6812
गुन	-10.683
▁तीनसाल	-10.6833
▁यून	-10.6841
▁साम	-10.6841
▁घबरा	-10.6869
▁ग्लोबल	-10.687
कंट्रोल	-10.687
▁आकर्षित	-10.687
▁ऑपरेशन	-10.687
▁कृत्रिम	-10.687
▁चंडीगढ़	-10.687
▁ज़िम्मेदार	-10.687
▁नुक़सान	-10.687
▁रिऐक्टर	-10.687
▁जनसंख्या	-10.687
▁प्रावधान	-10.687
▁मूल्यांकन	-10.687
▁युवराज	-10.687
▁स्टूडेंट	-10.687
▁प्रशंसा	-10.687
▁स्पिनर	-10.687
▁इलेक्ट्रानिक	-10.687
▁दीजिए	-10.687
▁करमापा	-10.687
▁अकेली	-10.687
▁हस्तक्षेप	-10.6871
▁पराजित	-10.6871
▁शिक्षित	-10.6872
▁बर्तन	-10.6872
▁उदय	-10.6873
▁कुत्ते	-10.6873
▁कम्पनी	-10.6875
▁'(	-10.6875
▁निर्मल	-10.6875
ेन्ट	-10.6875
मिश्राजी	-10.6876
▁दस्यु	-10.6876
▁जयपुर	-10.6878
▁प्रबन्ध	-10.688
▁29	-10.6881
बाप	-10.6885
▁जीवाणुओं	-10.6886
▁आक्साइड	-10.6886
▁कुएँ	-10.6889
▁समझदार	-10.6892
▁समेट	-10.6894
▁सज़ा	-10.6896
▁वैसी	-10.69
प्लाई	-10.6902
हूँ	-10.6902
▁खोद	-10.6906
▁जुटे	-10.6908
हमने	-10.6911
ांश	-10.6912
▁टाल	-10.6917
▁बढ़िया	-10.692
भूषण	-10.6921
▁गड़बड़ी	-10.6933
▁अंड	-10.694
▁डाक	-10.6941
▁उदास	-10.695
पोल	-10.6952
▁हासिलकर	-10.6957
बिंद	-10.6957
लेट	-10.6964
▁बैठने	-10.697
▁वचन	-10.698
▁विदा	-10.6989
रोड	-10.7001
ठरी	-10.7003
पूज	-10.7008
भय	-10.702
णिक	-10.702
▁छापे	-10.7042
डान	-10.7043
ियल	-10.7044
▁लेनी	-10.7048
▁सूना	-10.7052
तिया	-10.7055
▁उत्पादक	-10.707
तोड़	-10.7072
▁गाने	-10.7081
▁मद	-10.7082
▁विज	-10.7082
उत्पन्न	-10.7084
प्रश्न	-10.7084
आदमी	-10.7084
सुन्दर	-10.7085
स्पष्ट	-10.7091
ीपीए	-10.7091
▁तुमसे	-10.7096
प्रेम	-10.7096
▁42	-10.71
▁मैनेज	-10.7125
सकती	-10.7126
▁लाना	-10.7126
काफी	-10.7135
९०	-10.7138
यदि	-10.7139
▁मारकर	-10.7162
बाहर	-10.7177
▁सकताहै	-10.7183
ंट्स	-10.7191
▁ग़ौर	-10.7192
▁चमत्कार	-10.7192
▁दायित्व	-10.7192
▁नेटवर्क	-10.7192
▁बलात्कार	-10.7192
▁सम्प्रदाय	-10.7192
▁सम्मिलित	-10.7192
▁हाइड्रोजन	-10.7192
▁अत्याचार	-10.7192
▁पप्पी	-10.7192
▁जोखिम	-10.7192
▁लम्बे	-10.7192
▁हल्के	-10.7192
▁डिपार्टमेंट	-10.7193
▁ख़त्म	-10.7193
▁उपाधि	-10.7193
▁दिलीप	-10.7193
▁असांज	-10.7193
▁समूच	-10.7194
▁आत्मविश्वास	-10.7194
डिग्री	-10.7194
थन	-10.7195
▁बाइक	-10.7195
▁दुर्बल	-10.7196
▁व्यास	-10.7196
▁बदनाम	-10.7197
▁दाग	-10.7198
▁विराट	-10.7199
▁198	-10.7199
▁पाएंगे	-10.72
पूछ	-10.72
▁पहलू	-10.7203
▁सलाम	-10.7203
▁फलतः	-10.7204
▁उक्त	-10.7204
▁अणु	-10.7206
▁विधियों	-10.7206
▁सुधर	-10.7207
▁बापू	-10.7209
▁उन्नति	-10.721
▁सितार	-10.721
25	-10.7212
▁इंटरनैशनल	-10.7212
▁बीमारियों	-10.7213
▁तकलीफ	-10.7213
▁नंपूतिरिप्पाटु	-10.7215
▁लटक	-10.7218
▁फूलों	-10.7219
▁गिल	-10.7219
▁न्यूनत	-10.7219
▁दाखिल	-10.722
पालिका	-10.7228
▁ललिता	-10.7229
टेड	-10.7231
▁सहयोगियों	-10.7232
फकीर	-10.7233
▁जादू	-10.7235
सूडान	-10.7237
वध	-10.7237
▁प्रवास	-10.7237
चढ़ाव	-10.7238
▁तिर	-10.7241
▁चै	-10.7242
▁बच्ची	-10.7244
▁क्रियाओं	-10.7246
▁कर्ण	-10.7251
कुर	-10.7255
साइंस	-10.7258
▁किलोग्राम	-10.726
संस्था	-10.7264
▁जोड़े	-10.7266
▁सूखे	-10.7267
▁जातीहै	-10.7269
▁कहें	-10.7281
▁दरें	-10.7293
▁विकृत	-10.73
माँ	-10.7311
▁वाई	-10.732
▁मेले	-10.7322
बड़ा	-10.7324
▁घाटा	-10.7326
▁फैले	-10.7352
रक्षण	-10.7358
▁लाला	-10.7365
▁प्लेट	-10.7366
▁छान	-10.7371
▁घाटी	-10.7377
▁खेलते	-10.7379
▁रूसी	-10.7388
▁ढल	-10.7389
रोक्त	-10.739
आया	-10.7391
▁55	-10.7392
सिया	-10.7396
प्ति	-10.7406
सूचक	-10.7412
सूत्र	-10.7417
गुरु	-10.7418
संबंध	-10.7421
▁सहस	-10.7422
चुप	-10.7422
▁अपनाया	-10.7432
राय	-10.7432
गुड	-10.7438
▁लौटे	-10.7439
सकते	-10.7445
▁पग	-10.7445
िच्	-10.7453
▁निकाले	-10.7453
सम्मत	-10.7465
पैर	-10.7466
▁नहा	-10.7467
शेख	-10.7474
▁उपायों	-10.7481
क्साइड	-10.7491
▁पिछड़	-10.7492
पूरा	-10.7505
चरण	-10.7505
▁आर्यों	-10.7508
▁75	-10.751
श्लैष्मिक	-10.7526
स्टॉकएक्सचेंज	-10.7526
▁अल्पसंख्यक	-10.7526
▁घृणा	-10.7526
▁फ़ैसले	-10.7526
▁बंसीलाल	-10.7526
▁मुकाबला	-10.7526
▁सिमेंटेड	-10.7526
▁हिंदुस्तान	-10.7526
▁हेलिकॉप्टर	-10.7526
▁उष्ण	-10.7526
▁निरंतर	-10.7526
▁सदैव	-10.7526
▁अपहरण	-10.7526
▁संभावित	-10.7526
▁कलेक्टर	-10.7526
▁जबर्दस्त	-10.7526
▁आधिकारि	-10.7526
▁स्मरण	-10.7526
▁उपद्रव	-10.7526
▁लीजिए	-10.7526
▁इमली	-10.7526
▁यात्रियों	-10.7526
▁सज्जन	-10.7526
▁ऐलान	-10.7526
▁शिविर	-10.7526
▁खिताब	-10.7526
▁माथुर	-10.7526
▁पिघल	-10.7526
विमर्श	-10.7526
▁घातक	-10.7526
▁प्रसंग	-10.7526
▁परिणामस्वरूप	-10.7526
▁कीटनाशक	-10.7527
▁हथेल	-10.7527
▁नमून	-10.7527
▁धकेल	-10.7528
▁बिट्टी	-10.7528
▁शांतिपूर्ण	-10.753
▁बेस	-10.7531
▁तेरी	-10.7532
ऊँगा	-10.7533
▁अनुभूति	-10.7533
नाट्य	-10.7535
▁हरि	-10.7536
▁सूझ	-10.7537
▁आरटी	-10.7538
विहार	-10.7539
▁कटाई	-10.7541
गड़ी	-10.7541
▁प्रकरण	-10.7544
▁चालू	-10.7546
▁लेवल	-10.7546
निरपेक्षता	-10.7546
▁उबर	-10.7549
▁चाओ	-10.7551
्ण	-10.7552
▁मैन	-10.7552
▁खरीदार	-10.7553
▁कमिश	-10.756
कायदा	-10.7565
▁सोनिया	-10.7565
▁सक्षम	-10.758
▁अकाल	-10.7581
▁कलाओं	-10.759
▁ताई	-10.7592
़त	-10.7592
▁कवर	-10.7599
▁जोड़कर	-10.7605
▁दस्तावेजों	-10.7613
रक्त	-10.7631
सुख	-10.7633
▁घूमने	-10.7634
▁एसपी	-10.7635
▁मानस	-10.7636
▁खाया	-10.7645
▁लेगा	-10.7653
▁गाड़	-10.7655
सिर	-10.766
▁काटने	-10.7676
शूल	-10.7679
पीट	-10.7683
▁दाने	-10.7683
▁तान	-10.7688
्रम	-10.7688
▁१००	-10.7704
द्वार	-10.7714
▁ब्रे	-10.7718
▁उम्मीदवारों	-10.7722
▁जोशी	-10.7725
▁जानना	-10.7729
▁कप	-10.7732
८१	-10.7734
प्रेक्ष	-10.7735
▁डाइ	-10.7744
▁बताए	-10.7751
कैंसर	-10.7762
परिचित	-10.7762
दक्षिण	-10.7762
मनुष्य	-10.7762
चाहिए	-10.7763
स्वीकार	-10.7765
प्रक्रिया	-10.7768
▁ताज	-10.7772
रचना	-10.7774
▁२३	-10.7777
▁जरुर	-10.778
ऐसी	-10.7787
▁तबला	-10.7794
जिया	-10.7796
ऐसे	-10.7798
ष्टि	-10.7807
▁स्टार	-10.781
▁कराना	-10.7814
▁बताओ	-10.7818
▁आंत	-10.782
▁शिक	-10.7828
ानन्द	-10.7831
पड़ता	-10.7854
ख्यात	-10.7866
▁तीस	-10.7867
पेरीक्लीस	-10.7871
▁क़ैद	-10.7871
▁निष्पक्ष	-10.7871
▁मुलायम	-10.7871
▁मेडिकल	-10.7871
▁व्यावहारिक	-10.7871
▁उजागर	-10.7871
▁सम्पर्क	-10.7871
▁आंध्र	-10.7871
▁शकुनि	-10.7871
▁विलयन	-10.7871
▁पार्टियों	-10.7871
▁स्नातक	-10.7871
रेड्डी	-10.7871
▁आदमियों	-10.7871
▁ऊंचे	-10.7871
▁दलहनी	-10.7871
▁टुकु	-10.7871
▁अभियोज	-10.7871
▁श्रेय	-10.7871
▁आंतरिक	-10.7871
▁ब्यूरो	-10.7872
▁महत्त्वपूर्ण	-10.7872
▁सरजू	-10.7874
▁विवेक	-10.7874
▁लिपट	-10.7876
सीईओ	-10.7877
▁चाची	-10.7878
▁विवश	-10.7879
▁कस्ब	-10.788
▁कपूर	-10.788
▁रैली	-10.7881
▁पूर्णतः	-10.7881
▁38	-10.7881
▁सामान्यतः	-10.7881
▁ब्लड	-10.7882
▁आपसी	-10.7883
▁सूरत	-10.7887
▁गणित	-10.7889
फ़ोन	-10.7891
रदार	-10.7897
▁बढ़त	-10.7899
▁सप्त	-10.7902
▁उठने	-10.7906
▁बैन	-10.7908
▁आगरा	-10.7909
▁व्यापारिक	-10.7911
▁आएगी	-10.7911
▁पटना	-10.7913
▁झटके	-10.7914
▁धड़	-10.7914
सियत	-10.7916
हूं	-10.7917
▁टूर्नामेंट	-10.7923
▁पैदावार	-10.7928
प्रा	-10.7934
▁पहुँचे	-10.7939
▁औषध	-10.794
▁कॉफ	-10.7944
▁उठते	-10.7946
३०	-10.7951
▁पीपल	-10.7952
▁भई	-10.7959
▁आयकर	-10.7962
▁जोड़ने	-10.7962
▁बुलाने	-10.7969
▁मोहन	-10.7971
▁मास्टर	-10.7971
▁दमन	-10.7977
ह्र	-10.7977
▁मौन	-10.7985
बर्ग	-10.7989
छौ	-10.7997
▁इमर	-10.8013
▁चौथी	-10.8014
▁जगा	-10.8024
अन्य	-10.8025
▁अस्त	-10.8036
घाती	-10.8038
ुख्ता	-10.8041
कर्ताओं	-10.8042
थर	-10.8048
्वल	-10.8052
पड़ा	-10.8065
मान्य	-10.81
▁मजदूरों	-10.8101
कोष	-10.8102
प्लांट	-10.8111
योजना	-10.8117
स्टेडियम	-10.8118
दिसंबर	-10.8118
प्रसाद	-10.8119
संगठन	-10.8119
संगीत	-10.812
समाज	-10.812
८७	-10.812
▁साइब	-10.8136
▁नाप	-10.8139
▁खेलना	-10.814
२५	-10.8143
▁रोने	-10.8156
▁विषम	-10.816
▁आजाद	-10.8174
▁सतर्क	-10.8195
▁झड़	-10.8206
▁माइक्रो	-10.8227
ण्ः४	-10.8228
भारद्वाज	-10.8228
हवाईअड्ड	-10.8228
हेलिओथिस	-10.8228
▁इन्होंने	-10.8228
▁मर्यादा	-10.8228
▁विद्यार्थी	-10.8228
▁श्मशान	-10.8228
▁ससुराल	-10.8228
▁हिन्दुओं	-10.8228
▁नन्हें	-10.8228
▁यथार्थ	-10.8228
▁समुचित	-10.8228
▁सोवियत	-10.8228
▁ठाकुर	-10.8228
▁तर्जनी	-10.8228
▁रिटायर	-10.8228
▁अज्ञात	-10.8228
▁प्लास्टिक	-10.8228
▁दर्शकों	-10.8228
▁चारपाई	-10.8228
▁बंगले	-10.8228
▁हिंदी	-10.8228
ः२औ	-10.8228
▁मेरठ	-10.8228
▁निचले	-10.8228
▁उछाल	-10.8228
▁तूफान	-10.8228
▁रीयल	-10.8228
▁ग्रेवेल	-10.8228
▁पेट्रोलियम	-10.8229
▁साक्षात्कार	-10.8229
▁संवेदनशील	-10.8229
यूनुस	-10.8229
▁खनन	-10.823
▁सत्येंद्र	-10.823
▁जिन्दगी	-10.823
▁पैदल	-10.823
रिवाज	-10.823
▁गृहमंत्री	-10.8231
▁संकल्प	-10.8232
▁प्रयोगशाला	-10.8235
▁अवध	-10.8235
▁औषधियां	-10.8235
▁स्वीकृति	-10.8237
▁महानगर	-10.8238
▁बुध	-10.8239
टेलर	-10.8241
▁मंदी	-10.8242
▁बैक	-10.8243
▁सौदे	-10.8245
▁कार्यकारी	-10.8248
▁टीबी	-10.8249
▁जायगा	-10.8251
▁परियोजनाओं	-10.8252
▁सलाहकार	-10.8254
सभ्य	-10.8256
▁प्रशासनिक	-10.8256
भावना	-10.8258
▁जाएंगी	-10.8259
आदिवासी	-10.8263
▁आस्था	-10.8264
▁द्रविड़	-10.8266
▁पवित्र	-10.8274
▁भंडार	-10.8274
▁संहिता	-10.8275
▁चित्त	-10.8278
स्टेम	-10.828
▁महान्	-10.8285
मोटर्स	-10.8287
▁पृ	-10.8288
▁मटर	-10.8291
▁रीति	-10.8291
▁मामा	-10.8296
▁भली	-10.8297
जन्म	-10.8298
▁बक्स	-10.8298
▁तीख	-10.8304
▁दिलाने	-10.8306
▁जरुरी	-10.8306
५७	-10.8316
स्सा	-10.8316
▁समझाया	-10.8316
▁मोती	-10.8321
▁सुस्त	-10.8323
▁सीखने	-10.8328
्धा	-10.8329
थिल	-10.8331
▁ठेक	-10.8331
▁कटु	-10.8333
ख़ान	-10.8335
▁पैदाहो	-10.8348
फाई	-10.8353
शंस	-10.8358
▁बताना	-10.8372
▁दीदी	-10.8373
▁लेगी	-10.8373
प्पा	-10.8378
धारण	-10.8383
▁खण्ड	-10.8391
मनोहर	-10.8398
▁पका	-10.8405
▁खोलने	-10.8411
▁आपत्ति	-10.8413
सोल	-10.8416
पेश	-10.8425
षु	-10.8436
▁प्रकाशन	-10.8438
टोक	-10.8462
▁बनती	-10.8462
अनजाने	-10.8477
▁घुल	-10.8489
मूत्र	-10.849
परिवार	-10.849
साहब	-10.849
▁साधु	-10.8494
ाडिया	-10.8499
मुख्य	-10.8513
विवाह	-10.8516
▁गड़बड़	-10.8523
▁योग्यता	-10.8534
्कार	-10.8542
िल्ल	-10.8546
▁मानक	-10.8547
▁जुट	-10.8555
उठ	-10.8556
▁बुझ	-10.8567
ग्राफ	-10.8578
मर्	-10.8578
▁कॉल	-10.8582
▁न्यूक्लियर	-10.859
ओलंपिक	-10.8598
चव्हाण	-10.8598
डायबीटीज	-10.8598
प्रौद्योगिकी	-10.8598
▁थॉमस	-10.8598
▁विधायिका	-10.8598
प्राइवेट	-10.8598
▁लक्ष्मण	-10.8598
▁विभाजन	-10.8598
▁सरस्वती	-10.8598
▁संतुलन	-10.8598
▁अपेक्षित	-10.8598
▁आँगन	-10.8598
▁राडार	-10.8598
▁श्रीकांत	-10.8598
▁उच्चारण	-10.8598
▁हैदराबाद	-10.8598
▁वसूल	-10.8598
कैबिनेट	-10.8598
पपूड़ा	-10.8598
▁खामोश	-10.8598
▁वितरण	-10.8598
▁साझा	-10.8598
▁एकजुट	-10.8598
▁पताचला	-10.8598
▁चूहों	-10.8598
प्रेरक	-10.8598
▁यहूदी	-10.8598
श्रीनिवास	-10.8598
हंगामा	-10.8598
▁मेजबान	-10.8599
▁किराये	-10.8599
▁समावेश	-10.8599
▁राहुल	-10.86
भाषी	-10.86
▁१९९०	-10.86
▁ममता	-10.86
पुण्य	-10.86
▁मतभेद	-10.8601
▁नवाब	-10.8601
▁दाढ़ी	-10.8601
▁क्रांतिकारी	-10.8601
▁विस्थापित	-10.8601
▁उपन्यास	-10.8602
▁मेडल	-10.8603
ग्वेद	-10.8603
डिस	-10.8604
▁प्लान	-10.8604
▁अनुचित	-10.8605
▁नक्सल	-10.8605
▁बेचैन	-10.8605
▁समग्र	-10.8606
▁197	-10.8607
▁फौर	-10.8608
▁बिछा	-10.8612
▁ढाल	-10.8613
▁गोलियां	-10.8615
▁बाध्य	-10.8616
▁डेट	-10.8617
▁बुआई	-10.8617
पेशकश	-10.8617
▁कारगर	-10.8618
िमंडल	-10.8619
▁टकराव	-10.8619
▁चमड़	-10.8621
पूरी	-10.8621
▁आंकड़े	-10.8621
▁संपूर्ण	-10.8622
▁कार्यवाह	-10.8622
▁आमोद	-10.8623
▁चुरा	-10.8624
▁दतर	-10.8624
▁कमीशन	-10.8624
▁दुर्ग	-10.8628
▁बन्दर	-10.8632
▁सोसाइटी	-10.8634
सत्य	-10.8635
▁नाच	-10.8644
▁ट्रांस	-10.8648
▁मेजर	-10.8654
फॉ	-10.8656
▁बढ़ावा	-10.8656
▁कमांडर	-10.8659
▁विकार	-10.866
▁तथापि	-10.8662
केंद्र	-10.8667
रहने	-10.8679
पहल	-10.8679
गाड़ी	-10.8679
▁नशे	-10.8683
▁दोसाल	-10.8693
▁मैनेजर	-10.8699
▁33	-10.8701
▁लौटते	-10.8704
▁डरा	-10.8704
वादियों	-10.8705
▁लड़ने	-10.8725
▁ऐक्ट	-10.8726
▁मध्यमा	-10.8731
▁भै	-10.8738
▁जिद	-10.874
चन्द्र	-10.8742
ांतर	-10.8745
▁करतेहैं	-10.8748
▁पढ़े	-10.8751
▁खाई	-10.8751
▁अर्थशास्त्र	-10.8752
▁तोड़कर	-10.8756
▁मट	-10.8776
ोक्त	-10.8789
▁लेंस	-10.8794
▁बोलना	-10.8805
▁मिटा	-10.8809
▁आह्	-10.8814
▁७०	-10.8825
▁बेग	-10.8828
▁फैलने	-10.8867
दृश्य	-10.887
फुट	-10.8874
जल्दी	-10.8874
हमारे	-10.8875
इतना	-10.8876
2009	-10.8876
वृक्ष	-10.8877
विद्या	-10.8879
त्याग	-10.8884
▁विकृति	-10.8893
प्राण	-10.89
▁पाश्चात्य	-10.8907
▁भ्	-10.8907
करीब	-10.8912
▁मिट	-10.8919
▁गौरव	-10.8933
घटित	-10.8934
िस्म	-10.8941
प्रिय	-10.8947
संख्य	-10.8961
▁लाज	-10.8962
▁लाए	-10.897
▁गुर	-10.8974
▁लटका	-10.8976
▁अमृत	-10.8981
बड़	-10.8981
▁म्यूचुअल	-10.8982
▁साउथ	-10.8982
रेडियोऐक्टिव	-10.8983
हॉस्पिटल	-10.8983
▁आश्वासन	-10.8983
▁न्यूयॉर्क	-10.8983
▁पॉइंट	-10.8983
▁प्रोत्साहन	-10.8983
▁मज़बूत	-10.8983
▁सर्वोच्च	-10.8983
▁स्त्रोत	-10.8983
▁हेडगेवार	-10.8983
सोसायटी	-10.8983
▁आन्तरिक	-10.8983
▁मथुरा	-10.8983
▁श्वसन	-10.8983
▁पक्षाघात	-10.8983
▁नंदिनी	-10.8983
▁आवंटन	-10.8983
▁टाइप	-10.8983
▁परिश्रम	-10.8983
▁उत्तराधिकारी	-10.8983
▁मुकदमे	-10.8983
▁लश्कर	-10.8983
▁हवेली	-10.8983
▁हल्की	-10.8983
शौ४	-10.8983
▁प्राथमिकता	-10.8983
▁कर्नल	-10.8983
▁खांसी	-10.8983
▁सर्दी	-10.8983
▁व्याप्त	-10.8983
ऑफइंडिया	-10.8983
▁संवेदन	-10.8984
▁इस्लामाबाद	-10.8984
▁सम्बोध	-10.8984
▁एग्ज	-10.8984
▁अभिक्रिया	-10.8985
▁संस्कृतीकरण	-10.8986
▁हृदयनाथ	-10.8986
▁परिभाषा	-10.8987
▁शरद	-10.8987
▁उपयोगिता	-10.8988
▁सिमट	-10.8988
▁राणा	-10.8988
▁नाराज़	-10.8988
▁अनुकरण	-10.8989
▁विख्यात	-10.8989
चुन	-10.8989
▁जनमत	-10.8989
पाँव	-10.8989
▁झांक	-10.8991
▁कुत्ता	-10.8991
▁असमर्थ	-10.8991
▁प्याल	-10.8991
▁धुन	-10.8992
बीएम	-10.8993
▁ज़्यादातर	-10.8993
ावश्यक	-10.8994
▁वाणी	-10.8994
▁स्नान	-10.8995
प्रत्यय	-10.8996
▁सचिन	-10.8997
▁सीधी	-10.8997
▁सशस्त्र	-10.8997
▁शान्ति	-10.9002
▁पूजन	-10.9005
▁जैव	-10.9005
▁गवाह	-10.9006
▁दरार	-10.9007
▁शक्तियों	-10.9007
▁जासकता	-10.9009
▁नित्य	-10.901
▁साड़ी	-10.9011
सेंटर	-10.9011
वेंट	-10.9012
▁किन्नर	-10.9013
क्रो	-10.9015
▁कुरू	-10.9016
▁अधिकतम	-10.9016
आईए	-10.9021
▁किल्विष	-10.9024
▁पवन	-10.9028
▁संतुष्ट	-10.9029
▁टॉप	-10.9029
▁१९२	-10.9033
▁कक्ष	-10.9045
केन्द्र	-10.9048
▁जब्त	-10.9056
▁हंसते	-10.9064
▁लिहाजा	-10.9066
▁निः	-10.9078
▁शीतल	-10.9103
▁स्वाद	-10.9104
एमएफ	-10.9106
मुर्ग	-10.9122
१८	-10.913
▁टीचर	-10.9137
▁सोचना	-10.9154
विद्	-10.9156
▁टेक्नॉल	-10.9171
फाइल	-10.9174
▁इंच	-10.9182
सफर	-10.9203
चक्क	-10.9222
चौथाई	-10.9233
लक्षण	-10.9235
हाय	-10.9253
पिल	-10.926
लाखटन	-10.9264
साम्राज्य	-10.9274
समस्या	-10.9274
सामाजिक	-10.9274
कंपनी	-10.9275
परमाणु	-10.9275
अच्छी	-10.9275
संघर्ष	-10.9275
2008	-10.9277
▁बोर	-10.9277
प्रसिद्ध	-10.9277
▁महल	-10.9282
सिद्ध	-10.9282
मास्टर	-10.9292
▁बढ़ाए	-10.9305
अभि	-10.9308
चेतना	-10.9311
पूत	-10.932
वचन	-10.9323
▁सरस	-10.9329
आपको	-10.933
रेख	-10.933
इयां	-10.9334
▁खल	-10.9352
अगर	-10.9354
समान	-10.9356
▁पहना	-10.936
▁खत्महो	-10.9362
िगर	-10.9364
▁१९६	-10.9377
▁महंगा	-10.938
प्राथमिक	-10.9382
परिपक्व	-10.9383
▁अद्भुत	-10.9383
▁ढांचे	-10.9383
▁बदौलत	-10.9383
▁येदियुरप्पा	-10.9383
▁हड़ताल	-10.9383
▁हरदौल	-10.9383
▁१९७०	-10.9383
▁अमोनिया	-10.9383
▁आँसू	-10.9383
▁नींबू	-10.9383
▁रिकॉर्ड	-10.9383
▁रिटर्न	-10.9383
▁विद्यमान	-10.9383
अब्दुल्ला	-10.9383
दिसम्बर	-10.9383
▁फायदे	-10.9383
▁झगड़ा	-10.9383
▁बढ़ोत्तरी	-10.9383
▁ह्दय	-10.9383
लौकिक	-10.9383
▁अयोग्य	-10.9383
▁चौदह	-10.9383
▁ग्लास	-10.9383
▁धक्का	-10.9383
▁अंजाम	-10.9383
▁कौशल	-10.9383
▁चिन्तन	-10.9383
▁एनर्जी	-10.9383
▁फांसी	-10.9383
▁निम्नलिखित	-10.9383
▁बंदूक	-10.9383
▁चालीस	-10.9383
पीटरसन	-10.9383
▁रिजर्वबैंक	-10.9383
▁बाँट	-10.9383
▁इसलिये	-10.9383
▁सूंडियां	-10.9383
▁पर्दे	-10.9384
▁अनुयाय	-10.9384
▁गिलास	-10.9384
▁रचनात्मक	-10.9384
▁नाइट्र	-10.9385
▁दिदिया	-10.9385
▁अनुशासन	-10.9385
▁प्रतिनिधित्व	-10.9385
▁सामंत	-10.9386
▁इंटर	-10.9386
गिर्द	-10.9386
▁जनगण	-10.9386
अंधेरा	-10.9387
▁भाषाविज्ञान	-10.9388
▁जिलों	-10.9389
▁वरन्	-10.9393
ीरियल	-10.9394
▁नक्श	-10.9395
▁अनुवाद	-10.9395
▁प्रतिपाद	-10.9396
▁37	-10.9396
▁भोज	-10.9396
▁बौद्धिक	-10.9397
▁मासिक	-10.9399
स्थित	-10.94
▁स्तन	-10.94
▁पनप	-10.9402
कारात्मक	-10.9403
▁सर्वथा	-10.9403
▁नकारात्मक	-10.9408
▁प्रमाणित	-10.9409
▁बाबूजी	-10.9412
▁प्रशिक्ष	-10.942
▁मुशर्रफ	-10.9421
▁भावनाओं	-10.9428
थीं	-10.9429
संयोज	-10.9438
सीपी	-10.9442
▁चूर	-10.9446
▁फिल	-10.9451
▁पैड	-10.9457
▁सुनाया	-10.946
शरीफ	-10.9461
▁पढ़ते	-10.9471
▁बढ़ाया	-10.9479
▁इसबीच	-10.948
▁बुलाकर	-10.9485
▁महाराजा	-10.9489
▁खुलासे	-10.9491
आठ	-10.9495
▁आपदा	-10.9496
रहता	-10.9498
शुल्क	-10.9503
▁निराश	-10.9504
▁अटक	-10.9526
ावधि	-10.9527
▁पोप	-10.9536
▁अंतर्	-10.9538
▁खाती	-10.9542
रेस्ट	-10.9565
चिकित्सालय	-10.9582
▁300	-10.9604
रॉय	-10.9611
▁फंसे	-10.9612
▁अत्य	-10.9623
▁32	-10.9623
▁किनार	-10.9623
अफ्रीका	-10.969
अंग्रेज	-10.969
प्रणाली	-10.9691
लगभग	-10.9691
इतनी	-10.9691
दौड़	-10.9694
दुर्	-10.9698
एशिया	-10.9701
मांड	-10.9701
विभाग	-10.9706
मोटी	-10.972
▁सावधान	-10.9724
▁65	-10.9728
▁बाब	-10.9728
▁डिवेलप	-10.9728
यहां	-10.9737
मेरा	-10.9741
डीस	-10.9747
देखते	-10.9756
शक्ल	-10.9756
स्वर	-10.9759
केवल	-10.9759
▁कैट	-10.9774
मूर्ति	-10.9776
▁चंद्रम	-10.9785
अब्दुल	-10.9799
अनिरुद्ध	-10.9799
एस्पेशिया	-10.9799
▁आरबीआई	-10.9799
▁इस्तीफ़	-10.9799
▁उत्तेजना	-10.9799
▁डिजाइन	-10.9799
▁धारावाहिक	-10.9799
▁बंबई	-10.9799
▁मुद्रास्फीति	-10.9799
▁सिक्युरिटी	-10.9799
▁सॉफ्ट	-10.9799
▁स्विट्जरलैंड	-10.9799
▁हरदयाल	-10.9799
▁उँगल	-10.9799
▁एक्सपर्ट	-10.9799
▁चिरमदेव	-10.9799
▁जमींदार	-10.9799
▁निरीक्षण	-10.9799
▁लापरवाह	-10.9799
▁खाद्यान्न	-10.9799
▁नियामक	-10.9799
रतिकान्त	-10.9799
▁ऊँची	-10.9799
▁ऊँचे	-10.9799
व्यवस्थित	-10.9799
▁लुप्त	-10.9799
▁सुबीरा	-10.9799
▁रोकथाम	-10.9799
▁चुनौतिय	-10.9799
▁मगध	-10.9799
▁गद्दी	-10.9799
▁ख़ुद	-10.9799
▁शिवाजी	-10.9799
ज्योति	-10.98
ऑनलाइन	-10.98
▁सोलह	-10.98
▁पत्तों	-10.98
▁पृष्ठभूमि	-10.98
▁पतली	-10.98
▁सम्भावना	-10.98
▁काहिरा	-10.98
▁पीसकर	-10.98
▁नईदिल्ली	-10.98
▁शिल्प	-10.9801
▁नगीना	-10.9801
▁महत्त	-10.9801
▁एलबीडब्ल	-10.9801
▁सपने	-10.9801
फोर्स	-10.9801
▁सेंचुर	-10.9802
कल्चर	-10.9802
▁सफलतापूर्वक	-10.9802
प्रतिरोधक	-10.9803
छ्ल्	-10.9804
▁लपेट	-10.9805
▁भाइयों	-10.9806
▁तेरा	-10.9807
▁अटैक	-10.9807
▁अरजन	-10.9808
▁परास्त	-10.9808
म्रपा	-10.9808
क्रिस्टल	-10.9809
▁बहाना	-10.9809
▁रामलिंग	-10.981
वाचक	-10.9813
▁इराक़	-10.9814
▁बीड़ी	-10.9819
▁नैनो	-10.9824
▁कपास	-10.9824
▁धोनी	-10.9826
▁जकड़	-10.9828
▁पम्प	-10.9833
▁परिणत	-10.9835
▁दोनो	-10.9836
▁बरतन	-10.9836
▁साम्राज्यवाद	-10.9839
▁मानवीय	-10.9839
▁मिश्रित	-10.984
▁तारीफ	-10.9842
१२	-10.9854
चंद	-10.9855
▁आजतक	-10.9863
इइ	-10.9864
▁सस्ते	-10.9864
▁आएगा	-10.987
ब्रो	-10.9871
▁घेरे	-10.9882
▁जौ	-10.9891
तरफ़	-10.9894
▁क्षेत्रीय	-10.9899
सईद	-10.99
▁गेंदबाज़	-10.9913
्याज	-10.9918
▁पीले	-10.992
विधान	-10.993
60	-10.9935
▁ब्रि	-10.9941
▁मार्केट	-10.9943
▁चूक	-10.9955
ऊपर	-10.9974
बाड़	-10.9977
▁पटर	-10.9988
▁निद्रा	-11.0012
▁लाये	-11.0042
दिल	-11.0052
उड़	-11.0078
▁निर्देशक	-11.0099
▁36	-11.0116
दायक	-11.0121
हफ्ते	-11.0125
इस्लाम	-11.0126
विश्व	-11.0126
वृद्धि	-11.0126
बच्चे	-11.0126
स्वरूप	-11.0133
श्वेत	-11.0135
ाओगे	-11.0136
▁पहर	-11.0143
▁क्रिस	-11.0148
लौट	-11.0148
▁सृजन	-11.0174
उतर	-11.0174
▁पोट	-11.0194
प्राय	-11.02
उम्	-11.0214
69	-11.0222
▁स्वीकृत	-11.0223
महेंद्रसिंहधोनी	-11.0234
▁इंग्लिश	-11.0234
▁इकट्ठे	-11.0234
▁गुरुद्वारे	-11.0234
▁मुक़दम	-11.0234
▁रैंकिंग	-11.0234
▁विस्थापन	-11.0234
▁संक्षिप्त	-11.0234
▁सचिनतेंडुलकर	-11.0234
▁सम्पादक	-11.0234
▁सांप्रदायिक	-11.0234
▁सौंदर्य	-11.0234
▁गूगल	-11.0234
▁दुग्ध	-11.0234
▁पन्द्रह	-11.0234
▁बिजनेस	-11.0234
▁तरीकों	-11.0234
▁दैनिक	-11.0234
▁यूपीए	-11.0234
▁मलेरिया	-11.0234
▁देशभक्त	-11.0234
▁मोर्चे	-11.0234
▁जागरूक	-11.0234
▁सोमालिया	-11.0234
▁अवनद्ध	-11.0234
▁आमाशय	-11.0234
▁उखाड़	-11.0234
▁तरक्क	-11.0234
▁रात्रि	-11.0234
▁टक्कर	-11.0234
▁गरिमा	-11.0234
▁ख़राब	-11.0234
▁पंडित	-11.0234
▁निर्वाचन	-11.0234
,500	-11.0234
▁मक्का	-11.0234
▁हिंदुओ	-11.0234
▁सार्थक	-11.0235
▁सेलफोन	-11.0235
▁पसीना	-11.0235
▁रस्सी	-11.0235
▁अमृतयान	-11.0235
▁हरिधन	-11.0235
▁गुलाब	-11.0235
▁मिलावट	-11.0235
▁वेंकट	-11.0235
▁पेरिस	-11.0235
▁थूक	-11.0236
▁महासचिव	-11.0236
▁सपना	-11.0236
▁पर्दा	-11.0236
▁१९८१	-11.0236
▁दलील	-11.0236
▁मुमकिन	-11.0236
▁महात्मा	-11.0237
▁शुरूआत	-11.0237
▁महत्त्व	-11.0238
करोड़डॉलर	-11.0239
▁गुप्तचर	-11.024
▁पोलियो	-11.024
▁नाराजगी	-11.0242
▁कम्प	-11.0242
▁हलचल	-11.0242
वुड	-11.0243
▁क्रान्ति	-11.0244
▁अनिश्चित	-11.0246
▁सुमित	-11.0247
▁भागीदार	-11.0247
▁परिसर	-11.0247
▁प्रारंभिक	-11.0247
▁खिसक	-11.0249
▁विनाश	-11.025
▁बहाने	-11.025
बिन्दु	-11.0251
▁गाड़ियों	-11.0252
▁धातुओं	-11.0254
▁खाड़ी	-11.0255
▁परिजन	-11.0257
▁समक्ष	-11.0257
▁54	-11.0258
काउंसिल	-11.0259
▁वीजा	-11.0261
▁कगार	-11.0262
▁लिपि	-11.0262
▁टेली	-11.0262
गाड़	-11.0265
▁दण्ड	-11.0265
संचय	-11.0266
क्रमण	-11.027
▁बेचारे	-11.0274
▁बैंकिंग	-11.028
▁उम	-11.0294
▁बनायी	-11.0296
▁लीबियाई	-11.0296
▁घूमते	-11.0308
▁कहलाता	-11.0312
▁खुलकर	-11.0329
▁छुट	-11.033
▁लगेगी	-11.0333
▁बढ़ाई	-11.0361
▁ट्राइ	-11.0363
▁राख	-11.0394
▁पोस्ट	-11.04
ाधिक	-11.0407
▁प्रान्त	-11.042
▁सामर	-11.0428
फूल	-11.043
चल्	-11.0454
देवताओं	-11.0465
र्रा	-11.0466
झु	-11.047
▁रिसर्चर	-11.0473
▁मन्द	-11.0474
ुअल	-11.0477
▁पौध	-11.0498
गरम	-11.0505
भै	-11.0508
थोक	-11.0522
▁कैप	-11.0529
ेटिक	-11.0532
▁रिश्त	-11.0551
सचिव	-11.0579
चिकित्सा	-11.058
आर्थिक	-11.058
प्राचीन	-11.0581
▁१९३	-11.0581
सुरक्षित	-11.0582
पद्धति	-11.0582
शरीर	-11.0586
७६	-11.0586
इसलिए	-11.0587
एसपी	-11.0608
प्रदान	-11.0608
आधार	-11.0634
४७	-11.0636
भीतर	-11.0641
▁पॉल	-11.0643
मार्क	-11.0645
▁रोशन	-11.0647
क्रान्त	-11.0685
लिखित	-11.0685
▁निरर्थक	-11.0689
▁निष्क्रिय	-11.0689
ंबैसडर	-11.0689
अथॉरिटी	-11.0689
▁आक्सीजन	-11.0689
▁आयोजक	-11.0689
▁इलाहाबाद	-11.0689
▁ओमल्या	-11.0689
▁कर्नलगद्दाफ़ी	-11.0689
▁खरपतवार	-11.0689
▁चंद्रचूड़	-11.0689
▁जुर्माना	-11.0689
▁द्योतक	-11.0689
▁बौड़म	-11.0689
▁मल्लिका	-11.0689
▁मूंगफली	-11.0689
▁वाणिज्य	-11.0689
▁सिंगापुर	-11.0689
▁हिस्सों	-11.0689
▁ज़रुरत	-11.0689
▁प्रक्षेपण	-11.0689
▁मुसीबत	-11.0689
▁विरूद्ध	-11.0689
▁विरेचन	-11.0689
▁विश्राम	-11.0689
▁शैक्षिक	-11.0689
▁संस्करण	-11.0689
▁सल्फेट	-11.0689
▁स्पेशल	-11.0689
▁अस्थायी	-11.0689
▁ब्यौर	-11.0689
▁मूर्ख	-11.0689
▁ऑडिट	-11.0689
▁वरीयता	-11.0689
▁ज्वाला	-11.0689
▁पोषक	-11.0689
▁कनेक्शन	-11.0689
▁ठेकेदार	-11.0689
▁वायरस	-11.0689
▁अपितु	-11.0689
▁पाबंदी	-11.0689
समर्पण	-11.0689
▁उत्सव	-11.0689
▁मिसकीन	-11.0689
▁आंसू	-11.0689
▁घोड़ा	-11.0689
▁शहद	-11.0689
▁हल्का	-11.0689
▁बंगला	-11.0689
▁दखल	-11.0689
▁रत्ती	-11.0689
▁मच्छर	-11.0689
▁स्वीड	-11.0689
▁बुद्धिजीव	-11.0689
▁बबनी	-11.0689
▁संभल	-11.0689
▁पद्मिनी	-11.0689
▁पादप	-11.0689
▁प्रतिनिधिमंडल	-11.0689
▁निर्दोष	-11.069
ज़िले	-11.0691
▁चिड़ियाघर	-11.0691
▁पोंछ	-11.0691
दग्ध	-11.0691
▁बर्बाद	-11.0692
▁ठंडे	-11.0692
▁परिवेश	-11.0692
▁हरिजन	-11.0692
▁अवरोध	-11.0693
▁कीचड़	-11.0693
▁डीलर	-11.0694
▁किराया	-11.0695
▁संक्षेप	-11.0695
▁खोखल	-11.0696
▁घिस	-11.0698
▁धड़कन	-11.0698
▁टहल	-11.0699
▁हर्ष	-11.0699
जवाहर	-11.07
▁रूचि	-11.0701
▁कपड़ा	-11.0701
▁2006	-11.0701
▁ठण्ड	-11.0703
▁छोर	-11.0703
▁46	-11.0704
▁इर्द	-11.0704
▁अनजान	-11.0704
▁नस्ल	-11.0706
▁समाजवादी	-11.0706
▁घपल	-11.0706
▁घाव	-11.0707
▁नाभि	-11.0707
भाल	-11.0707
▁जरुरत	-11.0709
▁फर्जी	-11.0709
▁संसदीय	-11.071
▁तस्वीरें	-11.071
बैंड	-11.0711
▁सीरिया	-11.0712
▁डिब्बे	-11.0712
▁एकत्रित	-11.0713
▁अकाउंट	-11.0715
▁गिनती	-11.0716
ीक्षित	-11.0719
▁खपत	-11.072
▁साम्य	-11.072
▁पेपर	-11.0721
▁मौजूदगी	-11.0724
▁लग्ज	-11.0727
▁रोज़	-11.0732
बूझ	-11.0733
▁लिस्ट	-11.0734
न्वित	-11.0738
▁श्रोत	-11.0743
▁ताश	-11.0748
▁सिटी	-11.0768
▁सूद	-11.077
▁कुएं	-11.077
▁साध्य	-11.0771
▁गोरी	-11.0771
पाश्चात्यीकरण	-11.078
पेड़	-11.0782
▁न्यूज़	-11.0785
▁सिवा	-11.0789
▁चालक	-11.0789
▁रेंज	-11.0792
धीश	-11.0797
▁ऐल्युमिनिय	-11.0809
▁धीमे	-11.0809
▁रिसा	-11.0813
22	-11.0833
▁बारीक	-11.0866
सैट	-11.0899
▁मजाक	-11.0903
▁बच्च	-11.0903
35	-11.0919
▁44	-11.092
८४	-11.0933
▁नजरआ	-11.0936
क्षमता	-11.0982
ऑफ़	-11.1024
शिक्षण	-11.1055
पृथक	-11.1056
चौधरी	-11.1056
भांति	-11.1056
कार्बन	-11.1056
ग्रन्थ	-11.1056
ध्वनि	-11.1056
सुविधा	-11.1056
आधुनिक	-11.1056
स्वास्थ्य	-11.1056
अनुभव	-11.1057
ज्यादा	-11.1057
रिसर्च	-11.1057
अम्ल	-11.1058
बैठे	-11.106
निर्देश	-11.106
किताब	-11.106
दिखा	-11.1062
जुलाई	-11.1065
घंट	-11.1065
प्रकृति	-11.1065
▁इंड	-11.1071
६०	-11.1072
प्राप्ति	-11.1079
▁34	-11.1087
गंगा	-11.1094
कूद	-11.1096
▁कमांड	-11.1099
▁ललित	-11.1112
इंडिय	-11.1114
मलिक	-11.1131
४८	-11.1153
िन्दगी	-11.1163
▁अफगान	-11.1164
▁कट्टर	-11.1165
▁अतएव	-11.1165
▁आश्वस्त	-11.1165
▁क्षीण	-11.1165
▁दार्शनिक	-11.1165
▁पार्श्व	-11.1165
▁भ्रूण	-11.1165
▁वत्सला	-11.1165
▁उर्दू	-11.1165
▁महोदय	-11.1165
▁स्मार्ट	-11.1165
▁एस्टेट	-11.1165
▁झगड़े	-11.1165
▁मौलवी	-11.1165
▁व्यंग्य	-11.1165
▁रामायण	-11.1165
▁वैल्यू	-11.1165
▁अंधेरे	-11.1165
▁छुटकारा	-11.1165
▁विडियो	-11.1165
▁सुषिर	-11.1165
▁हनुमान	-11.1165
▁अनायास	-11.1165
▁मारुति	-11.1165
▁मोर्चा	-11.1165
▁कज़ाक	-11.1165
▁ऊँचा	-11.1165
▁पण्डित	-11.1165
▁गांठ	-11.1165
▁शिवसेना	-11.1165
▁खातिर	-11.1165
▁गिरोह	-11.1165
▁अंतर्राष्ट्रीय	-11.1165
▁प्रौढ़	-11.1165
▁शहीद	-11.1165
▁मनोरंजन	-11.1165
▁वाकई	-11.1165
▁ग्रीन	-11.1165
▁आभास	-11.1165
▁राजकीय	-11.1165
जानबूझकर	-11.1165
▁बत्ती	-11.1165
▁पेंटा	-11.1165
▁शंका	-11.1166
▁ब्लॉक	-11.1166
▁मौर्य	-11.1166
▁शिथिल	-11.1166
▁पाण्डुरोग	-11.1166
▁मछलियाँ	-11.1166
▁कमेटी	-11.1166
▁पैसों	-11.1166
▁अम्लपित्त	-11.1167
▁स्टार्ट	-11.1167
▁प्रत्यारोपण	-11.1167
▁अमृतसर	-11.1167
स्वस्ति	-11.1167
▁शैतान	-11.1167
▁मध्यप्रदेश	-11.1168
▁अड्ड	-11.1168
▁राधे	-11.1168
▁प्रतिस्पर्धा	-11.1168
▁झांस	-11.1169
▁फॉर	-11.1169
▁स्विस	-11.1169
▁बनावट	-11.1169
मोर्टन	-11.1169
▁हालैंड	-11.117
▁तापमान	-11.1171
▁चूहे	-11.1172
▁माथ	-11.1175
न्यूक्लियरप्लांट	-11.1175
▁संभवतः	-11.1176
▁49	-11.1177
बनर्जी	-11.1178
▁कार्यरत	-11.1178
▁आगमन	-11.118
▁आक्रामक	-11.118
▁अर्ध	-11.1181
▁पांचाल	-11.1186
▁तलवार	-11.1186
▁उपहार	-11.1187
▁वादक	-11.1187
▁मठ	-11.1188
▁बुरे	-11.1189
▁किसतरह	-11.1192
▁संवाद	-11.1194
▁अतुल	-11.1195
▁शीला	-11.1197
▁देखिए	-11.1198
▁जूते	-11.1199
▁जिसतरह	-11.1209
▁सबकुछ	-11.1211
▁मिलेंगे	-11.1213
▁लिव	-11.1214
▁आवेश	-11.122
▁जोरदार	-11.1221
▁नकद	-11.1222
▁मादा	-11.1223
▁वादा	-11.1228
▁मर्म	-11.1234
▁बसंत	-11.1236
यूनियन	-11.1242
▁सिवाय	-11.1245
▁सकूं	-11.1258
▁सफी	-11.1268
▁अपरा	-11.127
▁हराया	-11.1275
▁व्याधि	-11.1309
हाड़	-11.1358
रण्य	-11.1358
▁ऊब	-11.1364
▁ढह	-11.1407
भौं	-11.1417
५६	-11.1424
यादव	-11.1464
ध्यान	-11.1493
पुरूष	-11.1556
गुरू	-11.1556
श्रेष्ठ	-11.1556
अस्पताल	-11.1556
पुस्तक	-11.1556
वर्तमान	-11.1556
समुद्र	-11.1556
कांग्रेस	-11.1557
आत्म	-11.1559
अनेक	-11.1563
मन्त्र	-11.1564
तव्य	-11.1574
गलबा	-11.1574
जोशी	-11.1576
विभिन्न	-11.1577
▁दोगुन	-11.158
▁रफी	-11.1593
चिल्ल	-11.1601
१३	-11.1602
वहां	-11.1618
निकाल	-11.1644
▁रिजर्व	-11.1664
इलेक्ट्रान	-11.1665
▁डिपॉजिट	-11.1665
▁अंपायर	-11.1665
▁अफ़गान	-11.1665
▁अवशेष	-11.1665
▁आर्सेनिक	-11.1665
▁इंजिनियर	-11.1665
▁इजिप्ट	-11.1665
▁ईटीएफ	-11.1665
▁क्वॉर्टर	-11.1665
▁गुब्बारे	-11.1665
▁तंबाकू	-11.1665
▁तब्दील	-11.1665
▁दुरुपयोग	-11.1665
▁प्रॉडक्ट	-11.1665
▁फिक्स्ड	-11.1665
▁मृदंग	-11.1665
▁यहूदियों	-11.1665
▁यातायात	-11.1665
▁रेकॉर्ड	-11.1665
▁वारदात	-11.1665
▁सामर्थ्य	-11.1665
महमूद	-11.1665
लिमिटेड	-11.1665
▁उद्दीपक	-11.1665
▁ग्यारह	-11.1665
▁ट्रैफ़	-11.1665
▁ताँबे	-11.1665
▁संचालित	-11.1665
▁सेंट्रल	-11.1665
▁स्त्रियां	-11.1665
▁रिकार्ड	-11.1665
▁अनार्य	-11.1665
▁बलिदान	-11.1665
▁व्याकरण	-11.1665
▁एजेंट	-11.1665
▁सुषमा	-11.1665
▁सीढ़ियों	-11.1665
▁हाजिर	-11.1665
▁लाइफ	-11.1665
▁जरिये	-11.1665
▁सिनहा	-11.1665
▁नींव	-11.1665
▁बृह	-11.1665
▁श्रृंखला	-11.1665
▁तिवारी	-11.1665
हुसैन	-11.1665
▁मांसपेशिय	-11.1665
▁घोंसल	-11.1665
▁स्टाफ	-11.1665
▁नितान्त	-11.1665
पाउंड	-11.1665
▁सलमान	-11.1665
▁ज्वार	-11.1666
▁चाँद	-11.1666
बीएसई	-11.1666
िन्ग्	-11.1666
▁पहलुओं	-11.1666
▁निर्धारण	-11.1666
▁१९८४	-11.1667
▁निशानाबना	-11.1667
▁प्रलय	-11.1667
▁प्रोग्राम	-11.1667
▁संवैधानिक	-11.1667
▁अतिशय	-11.1667
▁मोतिया	-11.1667
▁गुंजा	-11.1668
▁नम्बर	-11.1668
▁संक्रमण	-11.1668
▁ठंडी	-11.1668
संगकारा	-11.1669
▁खंभ	-11.1669
▁आवारा	-11.167
▁दर्शात	-11.167
▁उच्चतम	-11.1672
▁आपातकाल	-11.1672
▁द्रोण	-11.1672
▁अभियुक्त	-11.1673
▁गर्भाश	-11.1673
▁चौड़ी	-11.1674
▁मराठ	-11.1674
▁स्वतः	-11.1674
▁हर्जान	-11.1674
▁ध्वनियों	-11.1674
▁भक्ति	-11.1675
▁तौल	-11.1675
▁विषैल	-11.1675
▁घटनाक्रम	-11.1676
राष्ट्रीय	-11.1676
▁इक्क	-11.1677
▁पत्ते	-11.1677
▁स्टैं	-11.168
औः	-11.1684
▁असंख्य	-11.1685
▁बजेगा	-11.1687
▁विकेटकीप	-11.1687
▁भागवत	-11.1688
▁बकरी	-11.169
▁बफी	-11.1691
▁वर्जन	-11.1691
▁शशी	-11.1693
▁तीर	-11.1695
▁शाखाओं	-11.1697
▁कोटक	-11.1697
▁गरज	-11.1706
▁दिलाया	-11.171
▁मंजिल	-11.1712
▁लुक	-11.172
▁डिप्	-11.1725
क्षणिक	-11.1748
▁द्व	-11.1751
प्रस्थ	-11.1757
दूषित	-11.1759
▁मेघ	-11.1768
६८	-11.1768
▁साहित्यकार	-11.1769
▁झोंक	-11.1775
▁दुष्	-11.1777
न्याय	-11.1779
महीना	-11.1804
▁दिखला	-11.1823
खुश	-11.1862
ुल्ला	-11.1868
किलो	-11.188
▁250	-11.1913
आमतौरपर	-11.1942
▁बानो	-11.1968
▁सशक्त	-11.1995
▁500	-11.1995
व्रत	-11.208
किलोग्राम	-11.2082
द्वितीय	-11.2082
वर्ल्डकप	-11.2082
श्रीमती	-11.2083
गाँव	-11.2083
बंगाल	-11.2083
निश्चय	-11.2084
ब्रह्म	-11.2084
पाकिस्तान	-11.2084
शत्रु	-11.2086
थोड़ी	-11.2087
ग्रुप	-11.2088
प्रधान	-11.2096
▁बेचार	-11.21
वर्धक	-11.2101
विषय	-11.2129
▁उन्हे	-11.2141
▁काउं	-11.2146
निरपेक्ष	-11.2159
▁वृद्ध	-11.2182
▁मछलिय	-11.219
▁हकीकत	-11.2191
इंश्योरेंस	-11.2191
क़ायदा	-11.2191
कॉरपोरेट	-11.2191
ग़ैर	-11.2191
▁अन्नाहजारे	-11.2191
▁इंजेक्शन	-11.2191
▁कॉर्पोरेट	-11.2191
▁ग़लत	-11.2191
▁चेरुश्शेरी	-11.2191
▁छत्तीसगढ़	-11.2191
▁तानाशाह	-11.2191
▁धैर्य	-11.2191
▁पारस्परिक	-11.2191
▁प्रमोदिनी	-11.2191
▁फ़्रांस	-11.2191
▁बृहस्पति	-11.2191
▁मुक़ाबल	-11.2191
▁रजिस्ट्र	-11.2191
▁समृद्धि	-11.2191
▁हड्डियों	-11.2191
▁१९८३	-11.2191
▁उत्तेजित	-11.2191
▁उपर्युक्त	-11.2191
▁एक्सचेंज	-11.2191
▁बिच्छू	-11.2191
▁रूपांतरण	-11.2191
▁समन्वय	-11.2191
▁सौभाग्य	-11.2191
▁हैंडसेट	-11.2191
▁मेट्रिक	-11.2191
▁तख्त	-11.2191
बटाबाद	-11.2191
▁भ्रष्ट	-11.2191
▁रोहतक	-11.2191
▁चिड़ियों	-11.2191
एक्सप्रेस	-11.2191
▁नाजुक	-11.2191
▁पुराण	-11.2191
▁सिकुड़	-11.2191
अध्यापन	-11.2191
▁धंधा	-11.2191
▁आश्रय	-11.2191
▁धमाका	-11.2191
▁स्तम्भ	-11.2191
▁प्रदत्त	-11.2191
इम्यून	-11.2191
▁असाध्य	-11.2191
▁मौलिक	-11.2191
▁मालकिन	-11.2191
▁टटोल	-11.2191
▁सिविल	-11.2191
▁आकांक्षा	-11.2191
▁शल्य	-11.2191
क़रार	-11.2192
▁लौह	-11.2192
▁भविष्यवाण	-11.2192
जेडीए	-11.2192
▁अमुक	-11.2192
▁प्रसव	-11.2192
▁बहुवचन	-11.2192
▁संयम	-11.2192
▁छटपटा	-11.2192
▁कुतप	-11.2192
▁लुटेर	-11.2192
▁बिगाड़	-11.2193
ऑर्डर	-11.2193
▁हुस्न	-11.2193
▁सदानंद	-11.2194
▁ज़िक्र	-11.2194
▁क्लोराइड	-11.2194
▁निरंजन	-11.2194
▁सम्मुख	-11.2194
▁2012	-11.2195
▁झील	-11.2195
ल्यूशन	-11.2195
▁पहलवान	-11.2195
▁ख़ून	-11.2195
मिजाज	-11.2196
▁बिंदु	-11.2196
▁जगेन	-11.2197
▁उदाहरणार्थ	-11.2197
▁यूरिया	-11.2199
▁विलास	-11.2199
़्अ	-11.2201
▁मीठा	-11.2201
▁चादर	-11.2203
गार्डन	-11.2203
▁जनपद	-11.2204
▁लाठी	-11.2204
▁गुफा	-11.2205
▁बाहु	-11.2206
▁वर्गीकरण	-11.2206
▁तैल	-11.2207
▁यूरो	-11.2211
गूंज	-11.2214
लेज़र	-11.2218
िलीवर	-11.2222
▁कुचल	-11.2223
मलिंगा	-11.2224
▁नाड़ी	-11.2227
▁जिस्म	-11.2228
▁बुद्धिमान	-11.2234
▁तनिक	-11.2234
▁व्यय	-11.2235
सतर्कता	-11.2247
▁निस्स	-11.2248
▁ठेल	-11.2265
▁हेक्ट	-11.2268
▁43	-11.2271
▁बारात	-11.2274
स्टाइ	-11.2277
अमेरिकन	-11.2291
▁खुर	-11.2292
▁आउटहो	-11.2393
योजनाओं	-11.2393
▁भट्टा	-11.2397
▁१५०	-11.2426
▁बिछ	-11.2469
ैकेट	-11.2495
▁२८	-11.2546
निश्चित	-11.2619
नैतिक	-11.2635
स्टेशन	-11.2636
▁आंकड़	-11.2636
प्रथम	-11.2637
सामग्री	-11.2638
पहुँच	-11.2638
ब्राह्मण	-11.2638
प्रस्तुत	-11.2638
अवस्था	-11.2638
दुख	-11.2638
तैयार	-11.2638
राजनीतिक	-11.2639
टूट	-11.2641
वैद्य	-11.2642
बिहार	-11.265
प्रमुख	-11.2656
निदेशक	-11.2659
बाबू	-11.2666
विहीन	-11.2672
▁ट्रांसफ	-11.2672
चावल	-11.2674
▁द्रो	-11.2683
खेत	-11.2687
▁रघु	-11.2707
क्रामक	-11.2729
▁इराक	-11.2731
लिक्विड	-11.2747
वैयक्तिक	-11.2747
सोसिएशन	-11.2747
▁अमिताभ	-11.2747
▁असंतोष	-11.2747
▁इस्तीफे	-11.2747
▁उत्कृष्ट	-11.2747
▁एहसास	-11.2747
▁गारंटी	-11.2747
▁तिब्बत	-11.2747
▁प्रणवमुखर्जी	-11.2747
▁प्रतियोगिता	-11.2747
▁प्रत्याश	-11.2747
▁प्रैक्टि	-11.2747
▁प्रोत्साहित	-11.2747
▁बर्खास्त	-11.2747
▁बीसीसीआई	-11.2747
▁भिखारी	-11.2747
▁रतनटाटा	-11.2747
▁विभाजित	-11.2747
▁समलैंगिक	-11.2747
वगैरा	-11.2747
▁अविनाश	-11.2747
▁आध्यात्मिक	-11.2747
▁ख़ारिज	-11.2747
▁चैंपियन	-11.2747
▁धनराशि	-11.2747
▁पेइचिंग	-11.2747
▁प्रॉब्लम	-11.2747
▁बेनजीर	-11.2747
▁रेगिस्तान	-11.2747
▁वार्षिक	-11.2747
▁वैवाहिक	-11.2747
▁कमज़ोर	-11.2747
▁चुप्पी	-11.2747
▁पार्टनर	-11.2747
▁संकीर्ण	-11.2747
▁एनजीओ	-11.2747
▁संचालन	-11.2747
▁बहरहाल	-11.2747
▁उपरान्त	-11.2747
▁भयानक	-11.2747
▁बॉडी	-11.2747
▁अहिंस	-11.2747
▁व्यतीत	-11.2747
▁अखिल	-11.2747
▁हरियाली	-11.2747
▁करुणा	-11.2747
▁वंचित	-11.2747
▁नियति	-11.2747
▁बुखार	-11.2747
▁दांव	-11.2747
▁भारतीयजनता	-11.2747
▁तबीयत	-11.2747
▁कौरव	-11.2747
▁अलगाववाद	-11.2747
▁बेहोश	-11.2747
द्वेष	-11.2748
▁हस्तांतर	-11.2748
▁स्पीकर	-11.2748
▁कसौट	-11.2748
▁कांफ्रेंस	-11.2748
घण्टे	-11.2748
▁बँध	-11.2748
इशारे	-11.2748
▁समन्वित	-11.2748
▁आफिस	-11.2748
▁सोलर	-11.2748
▁गुलाम	-11.2748
▁एंटी	-11.2749
▁उपजाऊ	-11.2749
▁भेड़	-11.2749
आपराधिक	-11.2749
चौहान	-11.275
▁सचेत	-11.275
▁नदियों	-11.275
▁सुश्रुत	-11.275
▁घनिष्ठ	-11.2751
ञ्च	-11.2751
जयवर्	-11.2751
▁भक्त	-11.2751
▁निबट	-11.2752
▁कारखाने	-11.2752
▁ब्याजदर	-11.2752
▁कंधे	-11.2752
▁उभार	-11.2753
▁फीचर	-11.2754
▁माननीय	-11.2754
▁आधुनिकीकरण	-11.2755
▁सुलभ	-11.2755
▁नजरबंद	-11.2755
▁मलहम	-11.2755
बशीर	-11.2755
▁सच्चाई	-11.2756
▁समीकरण	-11.2757
▁नीलाम	-11.2757
▁बागवान	-11.2758
▁प्लीज	-11.2758
▁शासनकाल	-11.2759
बसन्ती	-11.276
▁अर्जन	-11.276
रेटिना	-11.2762
▁नीरा	-11.2764
▁बतायी	-11.2764
पॉन्	-11.2765
▁हसन	-11.2766
संस्थापक	-11.2766
▁अभ्य	-11.2766
▁पद्म	-11.2768
▁सूजन	-11.2768
▁52	-11.2769
च्छेद	-11.2769
▁एपल	-11.2771
सोशल	-11.2775
सुलेमान	-11.2776
▁लार्व	-11.2776
सत्कार	-11.2783
सल्फा	-11.2798
मृग	-11.2805
▁बायो	-11.2925
▁ताड़	-11.2967
सारणी	-11.2973
▁जबरदस्त	-11.3004
▁लिच्छवियो	-11.303
द्रोह	-11.304
ाउंट	-11.3057
▁गुहा	-11.3109
िक्षु	-11.3119
▁ओढ़	-11.312
आईवी	-11.32
▁मढ़	-11.3214
स्थापित	-11.3224
नैशनल	-11.3226
डेविस	-11.3226
शैली	-11.3226
गंभीर	-11.3226
परम्परा	-11.3226
वैदिक	-11.3226
प्राकृतिक	-11.3226
पौधों	-11.3226
महत्वपूर्ण	-11.3227
अच्छे	-11.3227
सिद्धान्त	-11.3227
तिमाह	-11.323
उपयोग	-11.3232
मिट्टी	-11.3232
प्रायः	-11.3233
शुरू	-11.3236
प्यार	-11.3236
▁कलकत्त	-11.3285
▁संशोध	-11.329
▁असंतुल	-11.3304
▁प्रवर्त	-11.3316
नुकूल	-11.3321
▁रसोई	-11.3334
अक्तूबर	-11.3335
▁अनुसन्धान	-11.3335
▁आविष्कार	-11.3335
▁आशीर्वाद	-11.3335
▁गुलिन्दा	-11.3335
▁चबूतरे	-11.3335
▁टोयोटा	-11.3335
▁प्रेजिडेंट	-11.3335
▁मारुतिसुजुकी	-11.3335
▁विडंबना	-11.3335
▁स्वेच्छा	-11.3335
▁१९८८	-11.3335
▁आयोडीन	-11.3335
▁क्वाथ	-11.3335
▁दीर्घकाल	-11.3335
▁दूरसंचार	-11.3335
▁प्रायोगिक	-11.3335
▁फ़ायदा	-11.3335
▁बिल्डिंग	-11.3335
▁व्हील	-11.3335
▁ग्रोथ	-11.3335
▁जॉइंट	-11.3335
▁निषेध	-11.3335
▁मज़दूर	-11.3335
▁विकलांग	-11.3335
▁माइकल	-11.3335
▁मुम्बई	-11.3335
▁गुच्छे	-11.3335
▁लट्टू	-11.3335
▁यमुना	-11.3335
▁संपादक	-11.3335
▁अधूरा	-11.3335
डेलीमेल	-11.3335
▁प्रणाम	-11.3335
▁वायदा	-11.3335
▁पूंछ	-11.3335
▁पितृ	-11.3335
▁मेहमान	-11.3335
▁ख्याति	-11.3335
▁पक्की	-11.3335
▁नौसेना	-11.3335
▁छिड़क	-11.3335
▁भवानी	-11.3335
▁गुज़र	-11.3335
▁टेलीफोन	-11.3335
▁हरिद्वार	-11.3335
▁वास्ते	-11.3335
कुर्बान	-11.3335
▁भरोसे	-11.3336
▁सटीक	-11.3336
▁तीर्थ	-11.3336
▁ढाका	-11.3336
▁कुरान	-11.3336
विश्वसनीय	-11.3336
▁प्रीति	-11.3336
▁मर्जी	-11.3336
▁तड़प	-11.3336
▁न्यायमूर्ति	-11.3336
▁छोकर	-11.3336
▁सम्बंध	-11.3337
▁पशुगृह	-11.3337
▁ज़ाहिर	-11.3337
▁आर्मी	-11.3337
▁टांग	-11.3337
▁इजाफ	-11.3337
▁राजेश	-11.3337
▁यूसुफ	-11.3338
▁गौरैय	-11.3338
▁अचेत	-11.3338
▁ताज़ा	-11.3338
▁अस्त्र	-11.3338
▁समुद्रगुप्त	-11.3338
▁तालमेल	-11.3338
▁बछड़	-11.3338
▁सराहन	-11.3338
▁पलायन	-11.3339
िलंब	-11.334
सीवीसी	-11.334
▁भेदभाव	-11.334
▁प्रतिनिधियों	-11.3341
▁सादृश्य	-11.3341
▁वित्तवर्ष	-11.3341
▁तरल	-11.3341
▁बैग	-11.3343
▁सिपाही	-11.3343
▁शमश	-11.3344
▁नंपूतिरिप्पाटुः	-11.3344
▁गोल्फ	-11.3344
▁शोभा	-11.3345
▁राजेन्द्र	-11.3346
▁अंततः	-11.3346
▁पीतल	-11.3347
▁उबाल	-11.3351
▁48	-11.3352
▁पुतल	-11.3352
जर्नल	-11.3352
▁फटकार	-11.3355
▁क्षु	-11.3358
▁पताचलत	-11.3361
लिखे	-11.338
बुझा	-11.3402
प्लास्ट	-11.3411
▁उमड़	-11.3484
फ़िल	-11.3507
प्रांत	-11.3564
दुः	-11.3577
▁झंड	-11.3582
६५	-11.36
क्रेन	-11.3601
▁८६	-11.3654
रमण	-11.3757
▁चुभ	-11.377
▁विदेशमंत्र	-11.3803
संस्कार	-11.385
कॉलेज	-11.3851
क्रांति	-11.3851
पश्चिम	-11.3851
स्वप्न	-11.3851
मुद्रा	-11.3851
तुम्हारे	-11.3852
अध्ययन	-11.3852
विकसित	-11.3852
पंजाब	-11.3852
संकेत	-11.3853
▁१८८	-11.3857
तीव्र	-11.3858
मैदान	-11.3859
पदार्थ	-11.3859
बैठा	-11.3861
संग्रह	-11.3861
बैठक	-11.387
िट्य्	-11.3936
▁नंपूतिरी	-11.3955
▁गेम	-11.396
इलेक्ट्रिक	-11.396
▁विनम्र	-11.396
कम्युनिस्टपार्टी	-11.396
▁अग्निहोत्री	-11.396
▁इन्दिरा	-11.396
▁एचडीएफसी	-11.396
▁ऑक्टोपस	-11.396
▁ऑपरेटर	-11.396
▁ओएनजीसी	-11.396
▁कर्त्तव्य	-11.396
▁द्विपक्षीय	-11.396
▁बेंगलुरु	-11.396
▁बैक्टीरिया	-11.396
▁ब्राजील	-11.396
▁मलयेशिया	-11.396
▁विलुप्त	-11.396
▁शेयरबाज़ार	-11.396
▁सँभाल	-11.396
▁सप्लायर	-11.396
▁हिटलर	-11.396
▁इलेक्ट्रॉनिक	-11.396
▁ताबूत	-11.396
इंस्टिट्यूट	-11.396
▁अनामिका	-11.396
▁डिवाइस	-11.396
▁नीदरलैंड	-11.396
▁गांगुली	-11.396
▁जुलूस	-11.396
▁सुगंध	-11.396
▁अकस्मात	-11.396
▁चौबीस	-11.396
▁ज्योतिष	-11.396
▁ट्रैक	-11.396
▁पोशाक	-11.396
▁पोटाश	-11.396
▁आँकड़	-11.396
▁सवेरे	-11.396
▁व्यायाम	-11.396
▁संवेग	-11.396
▁कोलकाता	-11.396
▁लोकगीत	-11.396
▁सुर्ख	-11.396
▁कच्चा	-11.396
▁निवारण	-11.396
▁प्रचलन	-11.396
▁भिजवा	-11.396
▁थिर	-11.396
म्यूचुअलफंड	-11.396
▁पंचायत	-11.396
▁पछता	-11.396
ुद्दीन	-11.396
▁तुलसी	-11.396
▁कट्टरपंथ	-11.396
▁साँस	-11.396
▁भोजपुरी	-11.396
डीएनए	-11.396
▁अरूण	-11.3961
▁सबेरे	-11.3961
सामयिक	-11.3961
▁दाँत	-11.3961
▁मसौद	-11.3961
▁अधिनियम	-11.3961
▁कोच्चि	-11.3961
▁अगवा	-11.3961
▁बटोर	-11.3961
▁होस्नी	-11.3961
नियोजित	-11.3962
▁घबराहट	-11.3962
▁भुला	-11.3962
▁अंचल	-11.3962
संलग्न	-11.3962
▁निष्ठा	-11.3962
▁दक्षिणएशिया	-11.3962
▁झाँक	-11.3962
▁समकालीन	-11.3963
▁बँट	-11.3963
बिटिया	-11.3963
▁रेशम	-11.3963
अथर्व	-11.3963
▁स्टॉक	-11.3963
▁हॉलैंड	-11.3963
▁अनोख	-11.3964
▁१९६५	-11.3964
दिवसीय	-11.3964
▁बताइए	-11.3964
▁पुजार	-11.3965
▁छोड	-11.3965
▁अफ़स	-11.3966
▁समाधि	-11.3967
▁छिद्र	-11.3967
▁1990	-11.3967
▁अहीर	-11.3967
▁मालिश	-11.3968
▁टपक	-11.3968
▁कंवल	-11.3968
▁दलदल	-11.397
▁उल्टा	-11.397
▁अंकुर	-11.3972
▁घोर	-11.3974
▁स्टोर	-11.3975
▁इकाइय	-11.3977
तृप्त	-11.3978
▁सिंगल	-11.3979
▁देहात	-11.398
पटेल	-11.3983
▁एंड्र	-11.3988
▁अतिथि	-11.3997
▁ठोक	-11.4017
▁काँप	-11.402
ग्रेड	-11.4023
ायदान	-11.4033
▁काबिज	-11.4044
रंजन	-11.4051
श्रुत	-11.4081
चुम्बकीय	-11.413
लाभदायक	-11.4132
नमोहन	-11.414
ारिणी	-11.4146
ावर्त	-11.4176
ास्त्र	-11.4181
▁अकस	-11.4218
नासा	-11.432
स्वामि	-11.4345
▁वेश्या	-11.4356
सूचना	-11.4366
▁जोशू	-11.4376
बोल्ड	-11.4384
▁हरभजन	-11.4413
वर्तन	-11.4414
शिक्षा	-11.445
▁ड्राइव	-11.4466
महीनों	-11.4509
स्मृति	-11.4517
परिस्थिति	-11.4517
मनोविज्ञान	-11.4517
लक्ष्मी	-11.4518
निर्मित	-11.4518
मोहम्मद	-11.4518
चिकित्सक	-11.4518
परीक्षा	-11.4518
परिणाम	-11.4518
प्रत्येक	-11.4518
अतिरिक्त	-11.4518
उत्पादन	-11.4518
ऊर्जा	-11.4518
प्रयास	-11.4519
विशाल	-11.4519
महिला	-11.4519
बच्चों	-11.4519
मुंह	-11.4519
लक्ष्य	-11.4524
▁घोटाल	-11.4538
्च्	-11.455
▁डिब्ब	-11.4592
ोलियो	-11.4607
रुपयों	-11.4612
प्पू	-11.4624
ाभ्यास	-11.4627
▁उत्पीड़न	-11.4627
▁कूटनीतिक	-11.4627
▁ट्यूनीशिया	-11.4627
▁तहरीरचौ	-11.4627
▁दशरथ	-11.4627
▁नॉर्थ	-11.4627
▁पारदर्शिता	-11.4627
▁पिछवाड़े	-11.4627
▁पुर्तगाल	-11.4627
▁फास्फोरस	-11.4627
▁भग्गू	-11.4627
▁मुलाक़ात	-11.4627
▁यूरेनियम	-11.4627
▁वांछित	-11.4627
▁शाहरुख	-11.4627
▁सर्वोत्तम	-11.4627
▁साइंटिस्ट	-11.4627
▁स्पेसिम	-11.4627
आडवाणी	-11.4627
इंटेलिजेंस	-11.4627
एयरलाइंस	-11.4627
▁अवधारणा	-11.4627
▁ख्वाजा	-11.4627
▁न्यायाधीश	-11.4627
▁प्रोफ़ेसर	-11.4627
▁मण्डूर	-11.4627
▁लुढ़क	-11.4627
▁सैमसंग	-11.4627
▁सोडियम	-11.4627
▁स्थगित	-11.4627
मैथुन	-11.4627
▁प्रतिद्वंद्वी	-11.4627
▁मुस्कान	-11.4627
▁नारियल	-11.4627
▁जावित्री	-11.4627
▁निर्णाय	-11.4627
▁राजनेताओं	-11.4627
▁संरक्षक	-11.4627
बोटेनिकल	-11.4627
▁अछूत	-11.4627
▁गतिशीलता	-11.4627
▁पूँजी	-11.4627
▁अगुवा	-11.4627
▁अनियमित	-11.4627
▁स्थूल	-11.4627
▁भिवानी	-11.4627
▁हुक्म	-11.4627
▁गुल्ली	-11.4627
▁युवती	-11.4627
▁इश्क	-11.4627
▁बतूल	-11.4627
▁अनूप	-11.4627
▁अवकाश	-11.4627
▁इसराइल	-11.4627
अश्वमेध	-11.4627
▁बाक़ी	-11.4627
▁अगुआ	-11.4627
▁बखू	-11.4627
▁भरपाई	-11.4627
▁विसर्ज	-11.4627
▁वायरल	-11.4627
▁संध्या	-11.4627
▁कच्ची	-11.4627
▁पक्का	-11.4627
▁हकीकतराय	-11.4627
▁सद्भाव	-11.4627
▁बेरोजगारी	-11.4627
▁बेईमान	-11.4627
▁हरनामी	-11.4627
▁घसीट	-11.4627
▁छेद	-11.4627
▁भूगर्भ	-11.4627
सिल्वर	-11.4627
पैत्तिक	-11.4628
▁बाँस	-11.4628
▁लुई	-11.4628
▁पसीने	-11.4628
▁शिवचरण	-11.4628
कार्यकलाप	-11.4628
▁मित्रशक्तिय	-11.4628
▁मादक	-11.4628
▁बेरोज़गार	-11.4629
▁महर्षि	-11.4629
▁अभिप्राय	-11.4629
चौड़ाई	-11.4629
▁अनुपम	-11.4629
▁वीडियो	-11.463
▁कहानियां	-11.463
मुत्तु	-11.463
▁नौकरशाह	-11.4631
▁फिसल	-11.4631
▁गोदाम	-11.4631
▁मीठे	-11.4632
▁टावर	-11.4632
▁खिलौन	-11.4632
▁कबूल	-11.4632
▁बेशक	-11.4633
भुट्ट	-11.4633
▁स्टीव	-11.4641
▁गर्भवत	-11.4641
▁हताश	-11.4641
▁सीनेट	-11.4645
िरोधक	-11.4645
▁नासिक	-11.4647
▁लुट	-11.4647
▁फोक	-11.4653
▁कटोर	-11.4661
़र्ज़	-11.4664
किकुजी	-11.4664
▁असीम	-11.4665
शन्नो	-11.4668
प्रताप	-11.468
्रवण	-11.4692
▁नमाज	-11.4744
ब्रायन	-11.4768
▁सैलान	-11.4802
ीएमडी	-11.4827
ेमिक	-11.4853
दृष्ट	-11.4916
ग्राही	-11.4943
सहायता	-11.4977
▁प्रीमिय	-11.5143
ोबल	-11.5202
समर्थ	-11.522
टूर्नामेंट	-11.5231
दिल्ली	-11.5231
गेम्स	-11.5232
आँख	-11.5232
आनन्द	-11.5232
प्रचलित	-11.5232
उल्लेख	-11.5232
आखिर	-11.5232
अग्नि	-11.5233
दौरान	-11.5233
जरूरी	-11.5233
आकाश	-11.5233
दूसरी	-11.5233
विरोधी	-11.5233
सैनिक	-11.5233
लड़के	-11.5235
निशान	-11.5236
रोहण	-11.5258
आवाज	-11.5274
▁संश्लेष	-11.5294
वैधानिक	-11.5339
▁सऊदी	-11.5341
क्वार्टर	-11.5341
▁जवाहरलालनेहरू	-11.5341
▁१९८९	-11.5341
अकैडमी	-11.5341
वरुणकाका	-11.5341
सहिष्णु	-11.5341
▁आकृष्ट	-11.5341
▁इंडोनेशिया	-11.5341
▁इंस्पेक्टर	-11.5341
▁एंड्रॉयड	-11.5341
▁क्रेडिट	-11.5341
▁गोपालदास	-11.5341
▁जीवाश्म	-11.5341
▁झिझक	-11.5341
▁टेलिकॉम	-11.5341
▁टेलिविज	-11.5341
▁डायनासोर	-11.5341
▁ढांचा	-11.5341
▁तेंडुलकर	-11.5341
▁त्रासदी	-11.5341
▁थपथपा	-11.5341
▁दुःशासन	-11.5341
▁निर्दलीय	-11.5341
▁प्राधिकरण	-11.5341
▁प्रेशर	-11.5341
▁बहुसंख्यक	-11.5341
▁ब्रिगेड	-11.5341
▁लक्ष्मीकुट्टी	-11.5341
▁विक्रेता	-11.5341
▁वैकल्पिक	-11.5341
▁सन्तोष	-11.5341
▁सिद्दीक	-11.5341
▁सुल्तान	-11.5341
▁स्पैक्ट	-11.5341
▁अहमदाबाद	-11.5341
▁जवाहरलाल	-11.5341
▁ब्रैंड	-11.5341
▁मार्टिन	-11.5341
▁शर्बत	-11.5341
▁हूणों	-11.5341
▁छानबीन	-11.5341
▁ठुकरा	-11.5341
▁दिनचर्या	-11.5341
▁धमाकों	-11.5341
▁प्रयोजन	-11.5341
▁योरोप	-11.5341
▁उदेश्य	-11.5341
▁चोपड़ा	-11.5341
▁डीएमके	-11.5341
▁प्रचुर	-11.5341
▁बंदरगाह	-11.5341
▁एशियन	-11.5341
▁चश्मा	-11.5341
▁हौसल	-11.5341
▁आंशिक	-11.5341
▁विनोद	-11.5341
▁शोएब	-11.5341
▁कामनापूर्ति	-11.5341
▁गिद्ध	-11.5341
▁थैली	-11.5341
▁साधारणतया	-11.5341
स्वयंसेवक	-11.5341
▁निवेदन	-11.5341
▁खरीफ	-11.5341
▁प्रतिकूल	-11.5341
▁भयावह	-11.5341
▁भागलपुर	-11.5341
▁वकालत	-11.5341
परसेंट	-11.5341
▁सर्वहारा	-11.5341
▁खिलखिला	-11.5341
▁साँप	-11.5341
▁सिनेमा	-11.5341
रक्तस्राव	-11.5341
सीक्रेट	-11.5341
▁मुरली	-11.5341
▁सूअर	-11.5342
▁सजीव	-11.5342
हेगड़े	-11.5342
▁रोजमर्र	-11.5342
▁छींट	-11.5342
▁पेशाब	-11.5342
▁चन्द्रगुप्त	-11.5342
▁रसोईघर	-11.5342
▁धब्ब	-11.5342
▁एंट्र	-11.5342
▁कीआवश्यकता	-11.5342
िस्ट्रेट	-11.5342
नवम्बर	-11.5342
फोर्ड	-11.5342
▁पोलमैन	-11.5342
▁व्यंजन	-11.5342
▁डग्ग	-11.5342
▁सालेह	-11.5343
▁क्रान्तिकारी	-11.5343
▁कालाबाज	-11.5344
▁रजिस्टर	-11.5344
▁कागजात	-11.5344
धंधे	-11.5345
कर्त्ता	-11.5345
▁बब्ब	-11.5346
गृहस्थी	-11.5346
▁म्यूज	-11.5346
▁ड्रॉ	-11.5347
िन्हुआ	-11.5347
डौल	-11.5348
▁कतार	-11.5348
ब्यून	-11.5349
परिष्कृत	-11.535
▁मनीष	-11.5351
एटमी	-11.5354
पोषी	-11.5355
▁कदमउठाए	-11.5357
ाधीन	-11.5391
▁कॉलोन	-11.5397
वायस	-11.5403
▁कारिंद	-11.5433
▁हड़प	-11.5466
इंसाफ	-11.5503
सज्ज	-11.5563
▁सेमीफाइ	-11.5673
३००	-11.5679
▁बहुराष्ट्री	-11.57
▁लिच्छवि	-11.5727
फ्रेंड	-11.5756
▁अमेरिक	-11.5841
िलीन	-11.5934
खिला	-11.5938
पत्रिकाओं	-11.5943
संस्कृत	-11.5989
हिमालय	-11.6001
अनुसंधान	-11.6001
नियंत्रण	-11.6002
स्थापना	-11.6002
इतिहास	-11.6002
तुम्हें	-11.6002
पहचान	-11.6002
पौधे	-11.6002
किन्तु	-11.6002
पिछले	-11.6002
मंदिर	-11.6002
चाहते	-11.6002
चाहता	-11.6003
नृत्य	-11.6003
कन्या	-11.6006
ख़्	-11.6074
पचय	-11.6082
स्पर्धा	-11.6106
▁अफ़ग़ान	-11.611
टपटा	-11.611
ऊर्ध्व	-11.611
उन्क्नोत्न्	-11.611
न्यूयॉर्कटाइम्स	-11.611
पायरेथ्राइड	-11.611
पीपलीलाइव	-11.611
फुफ्फुस	-11.611
शिष्टाचार	-11.611
▁अख़बार	-11.611
▁अन्वेषण	-11.611
▁अवहेलना	-11.611
▁ईर्ष्या	-11.611
▁कॉन्ट्रैक्ट	-11.611
▁ग्लूको	-11.611
▁घोषाल	-11.611
▁जहीरखान	-11.611
▁डबडब	-11.611
▁तीक्ष्ण	-11.611
▁दरवाजों	-11.611
▁नवजागरण	-11.611
▁नाइजीरिया	-11.611
▁पीडि़त	-11.611
▁प्रायश्चित	-11.611
▁रुझान	-11.611
▁रेग्युल	-11.611
▁वानखेड़े	-11.611
▁वाराणसी	-11.611
▁विराटकोहली	-11.611
▁शाहिदअफ	-11.611
▁सचिनतेंदुलकर	-11.611
▁सन्तुष्ट	-11.611
▁सिक्यूरिटी	-11.611
▁स्कूटर	-11.611
▁स्वाधीनता	-11.611
▁गिरजाघर	-11.611
▁जैकब	-11.611
▁तुम्हीं	-11.611
▁तृतीय	-11.611
▁दौलत	-11.611
▁निमंत्रण	-11.611
▁पौष्टिक	-11.611
▁बेदखल	-11.611
▁वक़्त	-11.611
▁विनिवेश	-11.611
▁संदानम्	-11.611
▁सट्टेबाज	-11.611
▁अफसोस	-11.611
▁आप्रवासियों	-11.611
▁उत्तरदाताओं	-11.611
▁कंडक्टर	-11.611
▁टमाटर	-11.611
▁ब्रॉड	-11.611
▁विभक्त	-11.611
▁सिन्हा	-11.611
▁अठारह	-11.611
▁दस्तखत	-11.611
▁मद्रास	-11.611
▁दुविधा	-11.611
▁बरकरार	-11.611
▁रक्तचाप	-11.611
▁रुकावट	-11.611
▁शरारत	-11.611
▁सिंदूर	-11.611
▁असमंजस	-11.611
▁धीरज	-11.611
▁लैटिन	-11.611
अब्बास	-11.611
▁मिठाई	-11.611
▁रायल्टी	-11.611
▁जूलरी	-11.611
▁वापिस	-11.611
▁ह्रास	-11.611
▁मानदंड	-11.611
▁आशीष	-11.611
▁क्रिस्टलीय	-11.611
▁इन्तजा	-11.611
▁ठूँस	-11.611
व्यतिरेक	-11.611
▁इमेज	-11.611
▁निर्वाण	-11.611
▁हिलेरी	-11.611
▁करुंगा	-11.611
▁टाँग	-11.611
▁अलंकार	-11.611
▁पछाड़	-11.611
▁सिक्के	-11.611
तैबा	-11.611
▁विलम्ब	-11.611
▁खुराक	-11.611
ग्राउंड	-11.611
▁मुट्ठ	-11.611
▁जिहाद	-11.611
▁ख़ुश	-11.611
▁चंचल	-11.611
▁प्रीतम	-11.6111
▁खदेड़	-11.6111
क्राइस्ट	-11.6111
▁बूँद	-11.6111
▁शक्कर	-11.6111
▁चंपा	-11.6111
▁वृद्धावस्था	-11.6111
▁ड्राइंग	-11.6111
▁उतावल	-11.6111
▁कंधों	-11.6111
▁केअनुसार	-11.6111
▁साक्षी	-11.6111
▁तरदी	-11.6111
▁परछाई	-11.6111
▁सब्जी	-11.6111
▁फ़ौज	-11.6112
▁टोकरी	-11.6112
▁सतीश	-11.6112
▁ह्यूम	-11.6112
▁पनाह	-11.6112
▁अंगरेज	-11.6112
▁कस्टम	-11.6112
▁प्रोसेस	-11.6112
▁तेरह	-11.6113
पीपीपी	-11.6113
▁गलियों	-11.6113
विघ्न	-11.6113
▁घूस	-11.6113
प्रांजल	-11.6114
स्टेटस	-11.6114
▁प्रोडक्	-11.6115
योरिटी	-11.6115
▁सुरेश	-11.6118
सिंहासन	-11.6121
▁सीढ़िया	-11.6121
लुस्क	-11.6122
▁एलिय	-11.6124
▁बांह	-11.6129
मुन्ने	-11.614
वाष्प	-11.6154
आर्डर	-11.6159
संश्लेषित	-11.6161
▁बॉक्स	-11.6165
▁अर्पित	-11.6171
ध्वज	-11.6182
कार्तिक	-11.6199
दिवस	-11.6263
▁हारमोन	-11.6311
हरभजनसिंह	-11.6364
▁असहाय	-11.6395
किस्मत	-11.644
ंत्रिक	-11.6577
स्थिरीकरण	-11.6606
बीजिंग	-11.6613
▁छहमहीन	-11.6622
खरब	-11.6719
प्रेष	-11.6784
जगत्	-11.6808
मन्दिर	-11.6834
पृष्ठ	-11.6834
संहिता	-11.6834
चिन्ह	-11.6834
उद्योग	-11.6835
नाइट्रोजन	-11.6835
उपलब्ध	-11.6835
मस्तिष्क	-11.6835
भंडार	-11.6835
युवक	-11.6835
मुश्किल	-11.6835
भगवान	-11.6835
कृषि	-11.6835
चाहिये	-11.6835
प्रमाण	-11.6835
कठिन	-11.6835
मालूम	-11.6835
परन्तु	-11.6835
सुबह	-11.6835
स्मिता	-11.6835
इच्छा	-11.6838
पवित्र	-11.6839
▁चेन्नै	-11.6943
गिड़गिड़ा	-11.6943
▁डेविडकैमर	-11.6943
▁फाइनैंशल	-11.6943
▁स्लिप्स	-11.6943
फ़ुटबॉल	-11.6943
▁अप्रत्यक्ष	-11.6943
▁असम्भव	-11.6943
▁आयोडाइड	-11.6943
▁आसिफअलीज	-11.6943
▁ईपीएफ	-11.6943
▁उल्कापिंड	-11.6943
▁कामरानअकमल	-11.6943
▁कोलंबिया	-11.6943
▁क्रान्तिकारियों	-11.6943
▁क्वॉलिफा	-11.6943
▁खरगोश	-11.6943
▁टर्बाइन	-11.6943
▁तनख्वाह	-11.6943
▁दिग्गज	-11.6943
▁द्रमुक	-11.6943
▁परिचायक	-11.6943
▁पॉजि	-11.6943
▁बुढ़ापे	-11.6943
▁बॉम्बे	-11.6943
▁मुठभेड़	-11.6943
▁मेक्सिको	-11.6943
▁म्यांमार	-11.6943
▁रियासत	-11.6943
▁सिपाहियों	-11.6943
▁हाफिज	-11.6943
▁हाशिमअमला	-11.6943
चैम्पियन	-11.6943
▁परिष्कार	-11.6943
▁भण्डार	-11.6943
▁वाइरस	-11.6943
▁अराजकता	-11.6943
▁वैचारिक	-11.6943
ैक्ट्री	-11.6943
▁अजमेर	-11.6943
▁कचहरी	-11.6943
▁जुझार	-11.6943
▁योद्धा	-11.6943
एसएलवी	-11.6944
▁चेतनानन्द	-11.6944
▁ताम्र	-11.6944
▁वैभव	-11.6944
▁जाएँगे	-11.6944
▁साहेब	-11.6944
▁हजरत	-11.6944
▁आमंत्रित	-11.6944
▁मंहगा	-11.6944
▁त्रिफला	-11.6944
▁विचलित	-11.6944
▁मक्खी	-11.6944
▁मुनाफा	-11.6944
▁अनदेखी	-11.6944
▁अभिभावक	-11.6944
▁उजाला	-11.6944
▁रॉकेट	-11.6944
▁सतीनाथ	-11.6944
▁कुश्ती	-11.6944
▁तुर्की	-11.6944
▁प्रिंट	-11.6944
▁बाँह	-11.6944
▁बिल्डर	-11.6944
▁प्रशस्त	-11.6944
▁पाटील	-11.6944
▁सूफ़ी	-11.6944
▁जोधपुर	-11.6944
▁बिल्ली	-11.6944
▁पाइप	-11.6944
▁झूरी	-11.6944
▁तड़के	-11.6944
▁सरगना	-11.6944
▁नितांत	-11.6944
▁पेशावर	-11.6944
▁अश्वेतों	-11.6944
डिफेंस	-11.6944
▁विश्वसनीयता	-11.6944
▁धमनी	-11.6944
▁खूंट	-11.6944
एसबीआई	-11.6944
▁सुहाग	-11.6944
▁स्किन	-11.6944
निमित्त	-11.6944
▁खलील	-11.6944
रिचर्ड	-11.6944
▁मदिरा	-11.6945
▁पत्ती	-11.6945
▁उषा	-11.6945
▁लंका	-11.6945
▁मस्ती	-11.6945
▁गतिविधिया	-11.6946
▁संयोजक	-11.6946
फातिमा	-11.6946
प्यूपा	-11.6946
जीडीपी	-11.6947
तैसे	-11.6947
▁आज़ाद	-11.6948
▁रगड़	-11.6948
▁सूंडिय	-11.6949
▁अनुपस्थित	-11.695
▁पार्थिय	-11.695
▁उत्तरदाय	-11.6951
▁यूसुफरज	-11.6951
▁पिटार	-11.6951
अधूरी	-11.6952
करप्शन	-11.6953
▁शूट	-11.6959
जिन्दा	-11.6961
▁तिथि	-11.6962
देसाई	-11.6963
▁लहज	-11.6965
स्त्राव	-11.6966
पत्तियों	-11.6983
पीएसी	-11.6989
(	-11.971
